unsigned char converted_model_tflite[] = {
  0x1c, 0x00, 0x00, 0x00, 0x54, 0x46, 0x4c, 0x33, 0x14, 0x00, 0x20, 0x00,
  0x1c, 0x00, 0x18, 0x00, 0x14, 0x00, 0x10, 0x00, 0x0c, 0x00, 0x00, 0x00,
  0x08, 0x00, 0x04, 0x00, 0x14, 0x00, 0x00, 0x00, 0x1c, 0x00, 0x00, 0x00,
  0x8c, 0x00, 0x00, 0x00, 0xe4, 0x00, 0x00, 0x00, 0xe4, 0x15, 0x00, 0x00,
  0xf4, 0x15, 0x00, 0x00, 0x40, 0x1a, 0x00, 0x00, 0x03, 0x00, 0x00, 0x00,
  0x01, 0x00, 0x00, 0x00, 0x10, 0x00, 0x00, 0x00, 0x00, 0x00, 0x0a, 0x00,
  0x10, 0x00, 0x0c, 0x00, 0x08, 0x00, 0x04, 0x00, 0x0a, 0x00, 0x00, 0x00,
  0x0c, 0x00, 0x00, 0x00, 0x1c, 0x00, 0x00, 0x00, 0x38, 0x00, 0x00, 0x00,
  0x0f, 0x00, 0x00, 0x00, 0x73, 0x65, 0x72, 0x76, 0x69, 0x6e, 0x67, 0x5f,
  0x64, 0x65, 0x66, 0x61, 0x75, 0x6c, 0x74, 0x00, 0x01, 0x00, 0x00, 0x00,
  0x04, 0x00, 0x00, 0x00, 0x9c, 0xff, 0xff, 0xff, 0x07, 0x00, 0x00, 0x00,
  0x04, 0x00, 0x00, 0x00, 0x07, 0x00, 0x00, 0x00, 0x64, 0x65, 0x6e, 0x73,
  0x65, 0x5f, 0x31, 0x00, 0x01, 0x00, 0x00, 0x00, 0x04, 0x00, 0x00, 0x00,
  0x02, 0xea, 0xff, 0xff, 0x04, 0x00, 0x00, 0x00, 0x07, 0x00, 0x00, 0x00,
  0x69, 0x6e, 0x70, 0x75, 0x74, 0x5f, 0x31, 0x00, 0x02, 0x00, 0x00, 0x00,
  0x34, 0x00, 0x00, 0x00, 0x04, 0x00, 0x00, 0x00, 0xdc, 0xff, 0xff, 0xff,
  0x0a, 0x00, 0x00, 0x00, 0x04, 0x00, 0x00, 0x00, 0x13, 0x00, 0x00, 0x00,
  0x43, 0x4f, 0x4e, 0x56, 0x45, 0x52, 0x53, 0x49, 0x4f, 0x4e, 0x5f, 0x4d,
  0x45, 0x54, 0x41, 0x44, 0x41, 0x54, 0x41, 0x00, 0x08, 0x00, 0x0c, 0x00,
  0x08, 0x00, 0x04, 0x00, 0x08, 0x00, 0x00, 0x00, 0x09, 0x00, 0x00, 0x00,
  0x04, 0x00, 0x00, 0x00, 0x13, 0x00, 0x00, 0x00, 0x6d, 0x69, 0x6e, 0x5f,
  0x72, 0x75, 0x6e, 0x74, 0x69, 0x6d, 0x65, 0x5f, 0x76, 0x65, 0x72, 0x73,
  0x69, 0x6f, 0x6e, 0x00, 0x0b, 0x00, 0x00, 0x00, 0xfc, 0x14, 0x00, 0x00,
  0xf4, 0x14, 0x00, 0x00, 0xe4, 0x10, 0x00, 0x00, 0xd4, 0x0f, 0x00, 0x00,
  0xc4, 0x00, 0x00, 0x00, 0xa4, 0x00, 0x00, 0x00, 0x9c, 0x00, 0x00, 0x00,
  0x94, 0x00, 0x00, 0x00, 0x8c, 0x00, 0x00, 0x00, 0x6c, 0x00, 0x00, 0x00,
  0x04, 0x00, 0x00, 0x00, 0xa2, 0xea, 0xff, 0xff, 0x04, 0x00, 0x00, 0x00,
  0x58, 0x00, 0x00, 0x00, 0x0c, 0x00, 0x00, 0x00, 0x08, 0x00, 0x0e, 0x00,
  0x08, 0x00, 0x04, 0x00, 0x08, 0x00, 0x00, 0x00, 0x10, 0x00, 0x00, 0x00,
  0x28, 0x00, 0x00, 0x00, 0x00, 0x00, 0x06, 0x00, 0x08, 0x00, 0x04, 0x00,
  0x06, 0x00, 0x00, 0x00, 0x04, 0x00, 0x00, 0x00, 0x01, 0x00, 0x00, 0x00,
  0xeb, 0x03, 0x00, 0x00, 0x00, 0x00, 0x0a, 0x00, 0x10, 0x00, 0x0c, 0x00,
  0x08, 0x00, 0x04, 0x00, 0x0a, 0x00, 0x00, 0x00, 0x02, 0x00, 0x00, 0x00,
  0x02, 0x00, 0x00, 0x00, 0x04, 0x00, 0x00, 0x00, 0x06, 0x00, 0x00, 0x00,
  0x32, 0x2e, 0x31, 0x30, 0x2e, 0x30, 0x00, 0x00, 0x06, 0xeb, 0xff, 0xff,
  0x04, 0x00, 0x00, 0x00, 0x10, 0x00, 0x00, 0x00, 0x31, 0x2e, 0x35, 0x2e,
  0x30, 0x00, 0x00, 0x00, 0x00, 0x00, 0x00, 0x00, 0x00, 0x00, 0x00, 0x00,
  0x7c, 0xe7, 0xff, 0xff, 0x80, 0xe7, 0xff, 0xff, 0x84, 0xe7, 0xff, 0xff,
  0x2e, 0xeb, 0xff, 0xff, 0x04, 0x00, 0x00, 0x00, 0x10, 0x00, 0x00, 0x00,
  0x56, 0x94, 0xce, 0xbd, 0x3b, 0x9e, 0x13, 0xbd, 0x8f, 0x15, 0xb3, 0xbd,
  0x38, 0x46, 0x3e, 0x3e, 0x4a, 0xeb, 0xff, 0xff, 0x04, 0x00, 0x00, 0x00,
  0x00, 0x0f, 0x00, 0x00, 0x78, 0x0a, 0x7c, 0xbd, 0x28, 0x1d, 0xba, 0xbd,
  0x44, 0x69, 0x78, 0x3d, 0x6d, 0xa6, 0x68, 0x3e, 0xa0, 0x74, 0x96, 0xbc,
  0x00, 0x36, 0x71, 0xbe, 0x3b, 0x45, 0x86, 0xbe, 0x23, 0x90, 0x3a, 0x3e,
  0xd3, 0x2d, 0xc9, 0x3d, 0x0b, 0x2f, 0x01, 0x3e, 0x10, 0xb5, 0x3f, 0xbc,
  0x5b, 0x91, 0xb0, 0x3d, 0x2d, 0x12, 0x4e, 0x3d, 0xf1, 0x9e, 0x62, 0x3e,
  0x8f, 0x36, 0x89, 0x3d, 0x9a, 0xb1, 0x46, 0x3e, 0xfb, 0xb5, 0x0a, 0xbe,
  0x8a, 0x84, 0x88, 0x3e, 0x15, 0x86, 0x81, 0x3e, 0x9a, 0x0a, 0x91, 0xbd,
  0x76, 0x8c, 0x04, 0xbc, 0xb5, 0xe3, 0x95, 0x3d, 0x5f, 0x72, 0x10, 0xbe,
  0xac, 0x1f, 0x1c, 0x3e, 0xdc, 0x24, 0x5f, 0xbe, 0x11, 0x68, 0xa1, 0xbd,
  0x86, 0x3c, 0xb4, 0x3d, 0xa1, 0xc8, 0x2b, 0x3e, 0x36, 0x67, 0x61, 0xbe,
  0xa4, 0x0e, 0x5e, 0xbe, 0xf6, 0x62, 0x50, 0x3e, 0x30, 0xb3, 0xc0, 0xbd,
  0xd1, 0xa8, 0x5c, 0xbe, 0x3a, 0x0d, 0xff, 0xbd, 0x41, 0x76, 0x10, 0xbe,
  0xd9, 0xaf, 0x8f, 0x3e, 0x4b, 0x62, 0x8f, 0xbe, 0x26, 0xde, 0x9c, 0xbe,
  0x7b, 0x45, 0x7c, 0xbe, 0xf4, 0xc1, 0x2e, 0xbe, 0x17, 0x8d, 0x32, 0xbe,
  0x77, 0x3a, 0xd5, 0x3d, 0xca, 0x84, 0x86, 0x3e, 0x0d, 0x87, 0xb3, 0xbd,
  0x63, 0x0b, 0x52, 0x3d, 0x98, 0x2b, 0xd9, 0x3b, 0xbc, 0xd7, 0x69, 0x3e,
  0xfe, 0xc6, 0x06, 0xbe, 0x82, 0x03, 0xd5, 0x3d, 0x2b, 0x33, 0x15, 0xbd,
  0xf4, 0xfc, 0x95, 0x3c, 0x8d, 0x91, 0x77, 0x3e, 0xb6, 0x6a, 0x18, 0xbc,
  0xc5, 0x55, 0x8a, 0xbe, 0x94, 0xd3, 0x9c, 0x3d, 0xdb, 0x73, 0x81, 0x3e,
  0xf2, 0x7c, 0x31, 0xbe, 0x99, 0x48, 0xb0, 0x3d, 0x7a, 0xa4, 0x0b, 0x3e,
  0x76, 0xfc, 0xee, 0xbd, 0xa0, 0x80, 0x17, 0xbe, 0x24, 0x14, 0xec, 0x3d,
  0x60, 0x81, 0xf2, 0x3d, 0xac, 0xee, 0xe2, 0xbd, 0xd8, 0x71, 0x8b, 0xbe,
  0xc0, 0x8f, 0xc7, 0xbd, 0x1a, 0x27, 0xe0, 0xbd, 0x9e, 0x4b, 0x2d, 0x3e,
  0x28, 0xd7, 0x6d, 0xbd, 0xca, 0x1f, 0x6b, 0x3e, 0xaa, 0x90, 0x58, 0x3e,
  0x1c, 0x48, 0x57, 0xbd, 0x19, 0x45, 0x81, 0xbe, 0x96, 0x6a, 0x31, 0xbe,
  0x7e, 0x81, 0xaa, 0xbd, 0x7e, 0x2b, 0xe3, 0x3d, 0x91, 0xad, 0x19, 0x3e,
  0xf3, 0x94, 0x7e, 0x3e, 0x33, 0x2f, 0x42, 0xbe, 0xec, 0x9a, 0xc5, 0x3d,
  0x41, 0xe3, 0xdb, 0x3c, 0xf2, 0xb2, 0x76, 0x3e, 0x21, 0x92, 0x5e, 0x3e,
  0x18, 0x8b, 0x84, 0x3d, 0x39, 0x50, 0x7c, 0xbd, 0xc0, 0x4c, 0x68, 0x3c,
  0x8c, 0xa0, 0xcb, 0xbd, 0xf0, 0x28, 0x07, 0xbc, 0x0f, 0x38, 0x0f, 0x3e,
  0xb5, 0xae, 0xb1, 0x3d, 0x4b, 0xd6, 0x19, 0xbe, 0xf9, 0x39, 0x15, 0xbe,
  0x81, 0xea, 0x0b, 0xbe, 0x48, 0xe0, 0x64, 0x3e, 0x8c, 0x8e, 0x83, 0x3e,
  0x15, 0xde, 0x50, 0x3e, 0x83, 0xcf, 0xb4, 0xbc, 0x2e, 0x27, 0xdc, 0xbd,
  0x3b, 0xe6, 0x03, 0x3e, 0x1c, 0x42, 0x4c, 0x3e, 0x54, 0x25, 0x32, 0xbd,
  0x77, 0x02, 0x1a, 0xbe, 0x58, 0x74, 0x55, 0x3c, 0xfd, 0x83, 0xd0, 0x3d,
  0xe0, 0xa2, 0xd2, 0x3d, 0xb9, 0xc3, 0x1e, 0xbe, 0x4f, 0xb5, 0x87, 0xbd,
  0x9a, 0xd7, 0x5d, 0x3d, 0xc3, 0xd3, 0xc8, 0xbd, 0x99, 0x86, 0x69, 0xbe,
  0xd1, 0x22, 0x90, 0x3e, 0xb6, 0xbe, 0x01, 0x3e, 0x4d, 0x44, 0x0e, 0xbd,
  0x30, 0x2e, 0x6a, 0x3e, 0xc1, 0x25, 0x71, 0x3e, 0x6a, 0x10, 0x5c, 0xbd,
  0xe0, 0x7f, 0x67, 0x3e, 0xbd, 0x04, 0x46, 0x3e, 0xf7, 0x02, 0x9e, 0xbe,
  0x3f, 0xc3, 0x7c, 0xbe, 0xb8, 0xdb, 0xbf, 0x3d, 0x9e, 0xfb, 0x90, 0x3e,
  0xf7, 0xa6, 0xce, 0xbd, 0x20, 0x83, 0x97, 0xbd, 0xe4, 0x32, 0x02, 0x3e,
  0x1e, 0xd0, 0x38, 0x3d, 0x9a, 0x19, 0x53, 0xbe, 0xf6, 0x20, 0x23, 0x3e,
  0x28, 0x7c, 0x63, 0x3e, 0x05, 0x25, 0x63, 0x3e, 0x98, 0xb4, 0x6f, 0x3e,
  0x63, 0x73, 0xd5, 0xbd, 0xc8, 0x5b, 0x42, 0xbe, 0xa8, 0xb4, 0x04, 0xbe,
  0xc2, 0x23, 0x92, 0x3d, 0x6f, 0x18, 0x14, 0x3d, 0x41, 0x70, 0x54, 0xbe,
  0xff, 0x79, 0x65, 0xbe, 0x64, 0xf8, 0xf0, 0x3d, 0x18, 0xcb, 0x9f, 0x3d,
  0xb6, 0x79, 0x64, 0x3c, 0xf5, 0xae, 0x78, 0x3d, 0x04, 0x73, 0x2f, 0x3d,
  0x25, 0x47, 0x6b, 0xbe, 0x9a, 0x1c, 0xa6, 0xbb, 0x0e, 0xf3, 0xc4, 0xbd,
  0x8b, 0x22, 0x95, 0x3d, 0xec, 0x20, 0x60, 0x3d, 0x13, 0x51, 0x5b, 0xbe,
  0x6a, 0xfd, 0xb3, 0xbd, 0x00, 0x6e, 0xaf, 0x3b, 0x42, 0x28, 0x27, 0x3e,
  0xda, 0xae, 0x89, 0xbd, 0xea, 0x6e, 0x1d, 0x3e, 0xc6, 0xd9, 0x4d, 0xbe,
  0xba, 0x23, 0x42, 0x3e, 0xd0, 0x85, 0x65, 0xbd, 0x86, 0x3a, 0x62, 0x3e,
  0xc0, 0x26, 0x1a, 0x3c, 0x48, 0x4d, 0x58, 0xbe, 0x3c, 0xb4, 0x52, 0xbd,
  0xf4, 0xeb, 0xf6, 0xbd, 0x22, 0x40, 0x68, 0xbe, 0x79, 0xab, 0x8a, 0xbe,
  0xd0, 0xb6, 0xf6, 0x3c, 0x3f, 0x84, 0x02, 0xbe, 0x5b, 0x20, 0xdc, 0xbd,
  0x84, 0xef, 0x4b, 0xbd, 0x2f, 0x8c, 0x45, 0x3e, 0x74, 0xcb, 0x36, 0xbe,
  0xa7, 0x64, 0x8a, 0x3e, 0x85, 0x4b, 0x45, 0xbe, 0x89, 0x36, 0x93, 0x3d,
  0xc1, 0x68, 0x87, 0xbe, 0xf9, 0x8e, 0xbc, 0x3d, 0x32, 0x86, 0x0b, 0xbd,
  0x73, 0x3b, 0x66, 0x3e, 0xfe, 0x9c, 0xf6, 0x3c, 0x8f, 0x30, 0x76, 0xbe,
  0x03, 0xc9, 0x31, 0xbd, 0x4c, 0x2c, 0x44, 0xbe, 0x66, 0x94, 0x99, 0x3d,
  0x82, 0x26, 0x51, 0xbe, 0xb4, 0x36, 0x07, 0x3e, 0x58, 0x99, 0xc6, 0x3b,
  0x92, 0xd2, 0x44, 0xbd, 0xb4, 0x9b, 0x6d, 0x3e, 0x22, 0xb1, 0x43, 0x3e,
  0x48, 0xd0, 0xda, 0xbc, 0x18, 0x9d, 0x3b, 0x3e, 0x7c, 0x07, 0x2e, 0x3e,
  0x46, 0x1e, 0x17, 0x3e, 0x1e, 0xfd, 0x23, 0x3e, 0x1d, 0x4a, 0xcd, 0xba,
  0x3c, 0x9c, 0x16, 0xbe, 0x13, 0x6d, 0x1d, 0xbe, 0x16, 0xe5, 0x1f, 0xbe,
  0x41, 0x29, 0xc5, 0xbc, 0x8e, 0x01, 0x60, 0xbe, 0x26, 0x8a, 0x71, 0x3e,
  0xd9, 0xc1, 0x25, 0xbe, 0xf7, 0x5c, 0xf0, 0xbd, 0x61, 0x1c, 0x11, 0xbe,
  0x85, 0x4b, 0x75, 0x3b, 0xb3, 0x15, 0xca, 0xbc, 0x0a, 0x6a, 0xe5, 0xbd,
  0xee, 0xb7, 0xdd, 0x3c, 0xd0, 0xec, 0x92, 0x3b, 0x63, 0x70, 0x2d, 0x3c,
  0xb9, 0xe7, 0x23, 0x3d, 0x8b, 0x28, 0x67, 0x3e, 0xc6, 0x79, 0xce, 0xbd,
  0x07, 0x04, 0xab, 0x3d, 0xb7, 0x09, 0x66, 0xbd, 0x23, 0xb0, 0x8e, 0x3e,
  0x46, 0xf9, 0x14, 0x3d, 0x65, 0xf5, 0x77, 0x3e, 0xd3, 0x81, 0x35, 0xbe,
  0x50, 0x5b, 0x17, 0x3e, 0x3c, 0xfd, 0x1f, 0x3e, 0x49, 0x84, 0x11, 0xbd,
  0x15, 0xb3, 0x27, 0xbe, 0x19, 0xe4, 0x71, 0x3e, 0xcc, 0x00, 0x3c, 0x3c,
  0x8e, 0x32, 0x51, 0xbd, 0xed, 0x66, 0x86, 0x3d, 0xf1, 0xb0, 0x2a, 0x3e,
  0x4c, 0xdf, 0x3f, 0xbe, 0xe2, 0x6b, 0x3a, 0x3d, 0x14, 0xe0, 0xff, 0x3d,
  0x31, 0x89, 0xb7, 0xbd, 0x7c, 0xd5, 0x8c, 0xbd, 0xab, 0xaa, 0xd8, 0x3d,
  0x77, 0x2b, 0x38, 0x3e, 0x50, 0x92, 0x16, 0x3e, 0x66, 0x0c, 0x1e, 0xbe,
  0xb4, 0xeb, 0x0b, 0x3e, 0x28, 0x9c, 0x57, 0xbe, 0x01, 0xbc, 0xbc, 0xbc,
  0x36, 0x50, 0xd4, 0xbd, 0xbf, 0xa4, 0xc2, 0xbd, 0xd5, 0x44, 0xcd, 0xbd,
  0x4c, 0xd8, 0xfb, 0x3d, 0xad, 0x9c, 0x3a, 0xbe, 0x62, 0x02, 0x86, 0x3e,
  0xeb, 0x04, 0xc8, 0xbd, 0xc6, 0xff, 0x57, 0x3e, 0x2e, 0x82, 0x05, 0xbe,
  0x62, 0xc5, 0x85, 0x3e, 0x3e, 0xde, 0x8a, 0xbe, 0xa8, 0xe0, 0xa4, 0xbd,
  0x88, 0x8e, 0x7c, 0xbc, 0x27, 0x4b, 0x1a, 0xbb, 0xbe, 0x2b, 0x8b, 0x3e,
  0x84, 0x7f, 0x71, 0xbd, 0x26, 0x82, 0xa1, 0x3d, 0xe3, 0x4e, 0x0e, 0x3e,
  0x7f, 0xff, 0x95, 0x3d, 0x99, 0x0f, 0x16, 0xbe, 0x5c, 0x4d, 0xa9, 0x3d,
  0x74, 0x6e, 0x0c, 0xbe, 0x39, 0x0d, 0x44, 0x3e, 0x26, 0x53, 0x7a, 0x3e,
  0x55, 0x1c, 0xd5, 0x3d, 0x23, 0xff, 0xb4, 0xbc, 0xd7, 0x59, 0xf1, 0xbd,
  0x87, 0xd1, 0x13, 0x3e, 0x47, 0xd5, 0x56, 0xbe, 0xd9, 0x8d, 0xfc, 0x3c,
  0x4c, 0xac, 0xeb, 0x3d, 0xa8, 0x2b, 0x2d, 0xbd, 0xb7, 0x65, 0x44, 0x3e,
  0xf6, 0x0d, 0x77, 0x3e, 0x02, 0x72, 0x1d, 0x3d, 0xe3, 0xe0, 0x4b, 0xbe,
  0x41, 0x5e, 0xe8, 0xbc, 0x3a, 0x97, 0x7e, 0xbe, 0x69, 0x40, 0xba, 0x3d,
  0xa8, 0x73, 0x99, 0xbc, 0x29, 0xf2, 0x2e, 0xbe, 0xf1, 0xcc, 0xd8, 0x3d,
  0x53, 0x78, 0x03, 0xbe, 0x3e, 0xaf, 0x85, 0xbe, 0x4d, 0x59, 0x8d, 0x3d,
  0xac, 0x91, 0x13, 0x3c, 0x77, 0xa4, 0x3c, 0xbe, 0x3c, 0x1f, 0x6b, 0xbe,
  0x41, 0x8c, 0x83, 0x3c, 0xf8, 0xcf, 0xaf, 0xbd, 0x0a, 0xd5, 0xf4, 0x3d,
  0x4f, 0x7e, 0x10, 0x3e, 0xa1, 0xfb, 0x1a, 0xbd, 0x26, 0x9e, 0x05, 0x3e,
  0x41, 0x14, 0xda, 0xbb, 0xc9, 0x74, 0x19, 0xbc, 0xab, 0xb1, 0x4b, 0x3e,
  0x14, 0x20, 0xa6, 0x3d, 0x25, 0xfa, 0x1e, 0xbe, 0x8e, 0xff, 0x7f, 0xbd,
  0xaf, 0x0a, 0xc4, 0xbd, 0xcf, 0x68, 0x2a, 0x3e, 0x6e, 0x22, 0xcf, 0x3c,
  0x36, 0x46, 0xe3, 0x3d, 0xec, 0x81, 0x66, 0xbe, 0x30, 0xc7, 0x4e, 0x3e,
  0xb5, 0xee, 0x63, 0x3e, 0xef, 0xea, 0x18, 0xbe, 0x5a, 0x26, 0xfc, 0xbd,
  0xfa, 0xa3, 0x65, 0x3e, 0x90, 0x73, 0x0e, 0x3e, 0xd4, 0x06, 0x38, 0x3e,
  0x1c, 0x0b, 0x51, 0xbe, 0xf1, 0x57, 0xd3, 0x3d, 0xd3, 0x56, 0xc8, 0xbc,
  0xed, 0x2f, 0x20, 0xbe, 0x91, 0x40, 0x69, 0xbe, 0xfe, 0x37, 0x32, 0xbe,
  0xd6, 0xa3, 0xc1, 0xbd, 0xf3, 0x63, 0xac, 0x3d, 0x12, 0x39, 0x9e, 0x3d,
  0x33, 0xd9, 0x97, 0xbe, 0x17, 0xdb, 0x0e, 0x3e, 0x09, 0x8e, 0xc8, 0xbb,
  0xb9, 0x30, 0x22, 0x3e, 0x7a, 0xa1, 0x13, 0xbe, 0x84, 0x72, 0xc8, 0x3d,
  0x18, 0xe1, 0xd1, 0xbb, 0x95, 0x8b, 0x97, 0x3e, 0x0f, 0xd9, 0x14, 0x3e,
  0x5b, 0x2e, 0xce, 0x3b, 0x0e, 0xe2, 0xea, 0xbd, 0x90, 0x2d, 0x99, 0xbb,
  0xd1, 0xe0, 0x3a, 0xbe, 0x5f, 0x84, 0x7e, 0xbe, 0xc1, 0xf9, 0x5a, 0x3e,
  0x70, 0x73, 0xef, 0x3d, 0x73, 0x53, 0x92, 0xbe, 0x14, 0x68, 0x37, 0xbd,
  0x1e, 0xe4, 0x65, 0x3e, 0x04, 0x78, 0x15, 0xbd, 0x36, 0x74, 0x26, 0x3e,
  0xc0, 0xdb, 0x7f, 0x3e, 0x4e, 0xfd, 0x21, 0x3e, 0x10, 0xaa, 0x0e, 0xbe,
  0x97, 0x45, 0xa6, 0xbb, 0xc4, 0xfb, 0x84, 0x3c, 0x98, 0x58, 0x87, 0xbe,
  0x81, 0x20, 0x83, 0xbe, 0xc0, 0x3c, 0x10, 0x3d, 0xc7, 0xec, 0xde, 0x3c,
  0xe2, 0x0a, 0x37, 0x3d, 0xb4, 0xab, 0x30, 0xbe, 0xaf, 0x1c, 0x8e, 0xbe,
  0xc1, 0x0d, 0x5d, 0x3e, 0x8f, 0x8b, 0x1c, 0xbd, 0x9a, 0xab, 0x56, 0x3d,
  0xac, 0x96, 0x3e, 0x3e, 0x07, 0x53, 0x96, 0x3d, 0xdc, 0x1d, 0xda, 0xbd,
  0xe3, 0x83, 0xa0, 0xbc, 0x1b, 0x5c, 0x09, 0xbe, 0x01, 0xb3, 0x42, 0x3d,
  0xf5, 0xbf, 0x8b, 0xbe, 0xa7, 0x7d, 0x41, 0xbe, 0xbc, 0x8e, 0x37, 0x3d,
  0x07, 0x77, 0x86, 0xbe, 0x8c, 0xc0, 0x89, 0x3d, 0x98, 0xda, 0x77, 0x3e,
  0xaf, 0x67, 0x16, 0xbe, 0x05, 0x93, 0xa7, 0xbb, 0x85, 0x5d, 0x94, 0x3e,
  0x7f, 0x28, 0x14, 0x3e, 0x6e, 0x41, 0xaa, 0xbd, 0xe5, 0x91, 0x1c, 0x3e,
  0xf9, 0x55, 0xc9, 0xbd, 0x6c, 0x21, 0x07, 0x3e, 0x34, 0x24, 0x69, 0xbe,
  0xac, 0x51, 0x0f, 0xbe, 0x63, 0xd3, 0xa1, 0xbc, 0x0c, 0x31, 0x08, 0xbe,
  0xcf, 0x26, 0x3a, 0x3e, 0xa2, 0xb6, 0x90, 0xbe, 0xdb, 0x7d, 0x39, 0xbe,
  0x4c, 0x25, 0x7b, 0x3e, 0x37, 0xa6, 0x13, 0x3e, 0x52, 0x2d, 0x03, 0xbe,
  0x01, 0xf7, 0x71, 0xbe, 0x54, 0x9f, 0x69, 0xbe, 0x6c, 0xdf, 0xd3, 0xbd,
  0x84, 0xe6, 0x32, 0xbb, 0xbd, 0x7f, 0x20, 0x3e, 0xf7, 0xef, 0x42, 0x3d,
  0xdc, 0xfe, 0x39, 0xbe, 0x46, 0xcb, 0x5e, 0xbd, 0x9b, 0x3f, 0x24, 0xbd,
  0x61, 0xb3, 0x7e, 0xbe, 0xa8, 0x05, 0x63, 0x3e, 0x3f, 0x5a, 0x4d, 0x3e,
  0x5e, 0x37, 0x52, 0xbe, 0x89, 0xd1, 0xb5, 0x3c, 0xbb, 0xf1, 0x01, 0x3c,
  0x71, 0xd3, 0x95, 0x3d, 0xb0, 0xef, 0xde, 0x3d, 0x61, 0xa5, 0x6e, 0xbd,
  0x13, 0x84, 0x38, 0x3e, 0xf6, 0xf1, 0x3c, 0xbe, 0xd9, 0x33, 0x34, 0xbe,
  0xbe, 0xf5, 0x0c, 0x3e, 0xf0, 0x16, 0x4d, 0x3e, 0xcd, 0x9b, 0x16, 0xbe,
  0x38, 0x29, 0x12, 0xbd, 0x63, 0xd1, 0x6b, 0xbe, 0x00, 0x52, 0x5c, 0xbd,
  0xb0, 0xbc, 0x8b, 0x3c, 0xfe, 0x26, 0xc4, 0xbd, 0x70, 0x6f, 0x09, 0xbd,
  0x58, 0x06, 0xb8, 0xbd, 0x44, 0x15, 0xa1, 0x3d, 0x5a, 0x10, 0x8c, 0xbe,
  0x64, 0x8e, 0x66, 0xbe, 0xcf, 0x76, 0x8c, 0xbe, 0xa0, 0xfa, 0xa5, 0x3c,
  0x00, 0x7c, 0x4f, 0x3a, 0x5c, 0xde, 0xe7, 0x3d, 0x96, 0x04, 0x42, 0x3e,
  0x86, 0xf3, 0x74, 0x3e, 0xe6, 0xc8, 0x46, 0x3e, 0x20, 0xec, 0xd0, 0xbc,
  0x4b, 0x81, 0x46, 0xbe, 0x5a, 0xbf, 0x7c, 0xbe, 0xe3, 0x21, 0x75, 0xbe,
  0x32, 0x76, 0x2d, 0x3e, 0x40, 0xf3, 0xc9, 0xbd, 0x38, 0x14, 0x11, 0xbe,
  0x57, 0x3f, 0x02, 0xbe, 0x86, 0x98, 0x6e, 0xbe, 0x6e, 0xe5, 0xe9, 0x3d,
  0x5d, 0x1d, 0x06, 0x3c, 0xd5, 0xac, 0x21, 0xbe, 0x03, 0xf2, 0xb9, 0xbd,
  0x6f, 0x6c, 0xc4, 0xbd, 0xe4, 0xa2, 0x64, 0xbe, 0x54, 0x17, 0x97, 0x3c,
  0x8f, 0xa4, 0x20, 0xbe, 0x7a, 0x67, 0x8e, 0xbd, 0x54, 0xd5, 0xbb, 0xbd,
  0xb0, 0x50, 0xa8, 0x3d, 0xad, 0xdf, 0x02, 0x3d, 0xba, 0xd1, 0x89, 0xbc,
  0x5d, 0x33, 0x05, 0xbe, 0x19, 0x8a, 0x2c, 0x3e, 0xe1, 0x48, 0x5f, 0xbe,
  0xef, 0x94, 0x4d, 0x3d, 0xbb, 0x3b, 0xd5, 0xbd, 0xbe, 0x6f, 0x24, 0xbe,
  0x78, 0x29, 0x94, 0x3c, 0x0f, 0x0a, 0x8d, 0x3e, 0x90, 0x3c, 0x05, 0xbe,
  0xf3, 0x07, 0x2e, 0x3e, 0x1b, 0xfa, 0xec, 0x3d, 0x5b, 0xf6, 0xfc, 0xbd,
  0x97, 0xf8, 0x81, 0xbe, 0xb5, 0x3a, 0xf1, 0xbd, 0xf9, 0x02, 0x3f, 0x3e,
  0x65, 0xca, 0xdf, 0xbc, 0x18, 0xef, 0xd4, 0xbd, 0xb3, 0x97, 0x20, 0xbe,
  0x64, 0xf8, 0x6f, 0x3e, 0x63, 0xfd, 0x3f, 0x3e, 0x58, 0x0e, 0x37, 0xbe,
  0x35, 0x9f, 0x61, 0x3e, 0xf6, 0x4e, 0xfd, 0xbd, 0x1d, 0x5a, 0x4d, 0x3d,
  0x74, 0xf1, 0x01, 0x3e, 0xad, 0x8e, 0x2b, 0xbe, 0xd7, 0x44, 0x6d, 0xbd,
  0xef, 0x6c, 0x87, 0x3d, 0x00, 0x4d, 0xaf, 0x3d, 0x06, 0x42, 0x23, 0x3e,
  0x49, 0x6f, 0x2c, 0x3e, 0x4c, 0xf4, 0x6f, 0x3e, 0x56, 0xa5, 0x52, 0x3e,
  0x6e, 0xdc, 0xac, 0xbd, 0x31, 0x0e, 0x9d, 0x3d, 0x77, 0x15, 0x29, 0x3d,
  0x6c, 0xa2, 0xfe, 0x3d, 0xef, 0x51, 0x06, 0x3e, 0xfd, 0x22, 0x88, 0xbe,
  0x3f, 0xf7, 0xff, 0xbd, 0xae, 0x92, 0x2a, 0xbe, 0x73, 0xa3, 0x01, 0x3c,
  0x1d, 0x71, 0x6a, 0xbe, 0x2d, 0x27, 0x18, 0xbe, 0xff, 0x0a, 0x80, 0x3d,
  0x6f, 0x4f, 0x0f, 0x3d, 0x71, 0x36, 0x90, 0xbe, 0x4e, 0xab, 0x23, 0x3e,
  0x21, 0x35, 0x82, 0xbe, 0x32, 0xac, 0x26, 0x3e, 0x59, 0xad, 0x3c, 0xbe,
  0x3e, 0x25, 0xfe, 0xbc, 0x6e, 0x7b, 0x51, 0x3e, 0xab, 0xe4, 0xd2, 0x3d,
  0x75, 0xe4, 0x11, 0xbd, 0x74, 0x4d, 0x99, 0x3e, 0x52, 0xe9, 0x5e, 0x3d,
  0x64, 0xb6, 0xa1, 0x3d, 0x43, 0xe9, 0x8f, 0xbd, 0x69, 0x90, 0x00, 0xbe,
  0x35, 0x40, 0x7e, 0x3d, 0xce, 0xbb, 0xd6, 0x3c, 0x80, 0x87, 0x66, 0xbe,
  0x2e, 0x26, 0x52, 0x3e, 0x62, 0xfb, 0x4a, 0xbe, 0x0f, 0xc5, 0x12, 0x3e,
  0xac, 0x35, 0x1b, 0x3c, 0x3e, 0x6c, 0x3c, 0xbe, 0x76, 0x90, 0x9f, 0x3c,
  0xb7, 0x04, 0x82, 0xbe, 0x0d, 0xdd, 0xb4, 0x3d, 0x0f, 0x23, 0x71, 0x3d,
  0x17, 0xe1, 0x37, 0xbd, 0x26, 0x18, 0x35, 0x3d, 0x7e, 0x3a, 0x79, 0xbe,
  0xdd, 0xa8, 0x00, 0x3d, 0xea, 0xe0, 0xcc, 0x3d, 0xf7, 0xf3, 0x00, 0xbe,
  0x3c, 0xe6, 0x77, 0x3e, 0x15, 0x5d, 0x93, 0x3d, 0xe0, 0xaf, 0x74, 0x3e,
  0x2d, 0xf4, 0x0d, 0x3e, 0x4e, 0x96, 0xb9, 0xbd, 0x37, 0x99, 0x3f, 0xbe,
  0x5e, 0x9d, 0x3a, 0x3d, 0xd6, 0x96, 0x86, 0x3e, 0x59, 0x18, 0x70, 0xbd,
  0xa4, 0x42, 0x0a, 0xbe, 0x0d, 0x32, 0x2c, 0xbe, 0x35, 0x8f, 0x2f, 0x3e,
  0x38, 0xcd, 0xe3, 0x3d, 0x19, 0xd8, 0x4f, 0x3c, 0xab, 0x49, 0xd4, 0x3d,
  0xfb, 0x6e, 0x32, 0xbe, 0x98, 0x2c, 0x03, 0xbe, 0x20, 0xc7, 0xf9, 0xbd,
  0x70, 0x2e, 0x2e, 0x3c, 0xb3, 0xd5, 0x1f, 0xbe, 0xc4, 0x1b, 0x08, 0x3e,
  0xef, 0x4f, 0x73, 0x3e, 0x1c, 0xf2, 0x6c, 0xbd, 0x83, 0x05, 0x9a, 0xbd,
  0xdb, 0x8e, 0xd4, 0x3c, 0x92, 0x10, 0xe7, 0xbd, 0xf0, 0xbf, 0xef, 0x3d,
  0xda, 0xd2, 0xc7, 0xbc, 0x47, 0xe4, 0xbf, 0x3c, 0x71, 0x4a, 0x21, 0x3d,
  0x0f, 0x65, 0x8f, 0xbc, 0xc9, 0xdd, 0xb0, 0x3d, 0xdb, 0x8f, 0x86, 0xbd,
  0x54, 0xf7, 0xdc, 0xbc, 0x72, 0x6e, 0xb3, 0xbd, 0xe2, 0xd0, 0x11, 0x3e,
  0x19, 0xb9, 0xc1, 0x3c, 0x21, 0xbb, 0xe1, 0x3d, 0xce, 0x1c, 0x5e, 0xbd,
  0x9e, 0x1a, 0x69, 0x3e, 0x27, 0x1c, 0xef, 0x3d, 0x2f, 0x0f, 0x06, 0x3e,
  0x9c, 0x04, 0x6a, 0xbd, 0x3d, 0xff, 0x9c, 0xbd, 0x3f, 0x92, 0xbf, 0xbb,
  0x8d, 0xc8, 0x10, 0xbe, 0x24, 0x10, 0xa1, 0x3e, 0x1d, 0x41, 0xac, 0xbd,
  0x8b, 0xa2, 0x9c, 0x3e, 0x7a, 0x38, 0x5d, 0x3e, 0x89, 0x57, 0x02, 0xbe,
  0xdf, 0x3a, 0xd3, 0x3d, 0x01, 0x09, 0x4e, 0x3e, 0x62, 0x70, 0x2f, 0xbe,
  0xaf, 0x7f, 0x88, 0xbe, 0x38, 0x5f, 0x70, 0x3e, 0x2d, 0xac, 0x02, 0x3e,
  0x5d, 0xb7, 0x5d, 0x3e, 0x73, 0x4c, 0x3c, 0x3e, 0xba, 0xb1, 0x4f, 0x3e,
  0x3e, 0x02, 0x54, 0xbc, 0x84, 0xdf, 0x52, 0xbe, 0x07, 0x1c, 0x52, 0x3e,
  0x74, 0x22, 0x37, 0xbe, 0xd1, 0xfd, 0x49, 0xbe, 0x5f, 0x1a, 0xe9, 0x3d,
  0x08, 0x81, 0x24, 0xbe, 0x74, 0x74, 0x7e, 0xbe, 0x16, 0x56, 0x6f, 0x3e,
  0x87, 0x73, 0x64, 0x3e, 0x4c, 0x4b, 0x88, 0x3e, 0x37, 0x27, 0x25, 0x3e,
  0xd6, 0xe4, 0xe1, 0xbd, 0xaf, 0xd1, 0x04, 0xbe, 0xc8, 0xee, 0x1a, 0x3e,
  0xdf, 0x87, 0xd2, 0x3d, 0x79, 0xb9, 0x7d, 0xbe, 0xc0, 0x57, 0xa6, 0x3d,
  0x9b, 0x3f, 0x00, 0xbe, 0x32, 0x11, 0x4a, 0x3d, 0x20, 0x09, 0x3e, 0xbd,
  0xfc, 0x3e, 0x31, 0xbe, 0xf4, 0xc0, 0xdf, 0x3d, 0xbb, 0x9f, 0x43, 0xbd,
  0x5a, 0xdc, 0x62, 0xbd, 0x82, 0x31, 0xb0, 0x3d, 0x86, 0xe2, 0xb5, 0xbd,
  0xad, 0xe4, 0x1c, 0x3c, 0x2f, 0xe8, 0xb4, 0x3d, 0xfa, 0x5d, 0x5c, 0xbd,
  0xce, 0x08, 0x06, 0x3e, 0xe4, 0x79, 0x89, 0xbe, 0x64, 0xd7, 0x86, 0xbe,
  0x1a, 0xd1, 0xee, 0xbd, 0x5a, 0x0e, 0xf4, 0x3b, 0x37, 0x77, 0x85, 0x3e,
  0x08, 0xb8, 0x41, 0xbe, 0xee, 0x22, 0x04, 0xbe, 0xb0, 0xaf, 0x08, 0xbe,
  0x8e, 0x79, 0x8f, 0x3d, 0xaf, 0x72, 0x5b, 0x3e, 0x83, 0x0c, 0x71, 0xbd,
  0xda, 0xd0, 0x0d, 0xbe, 0xed, 0x07, 0x77, 0x3e, 0xc3, 0x5b, 0x58, 0xbe,
  0xd6, 0x7b, 0x1a, 0x3e, 0xa6, 0x9a, 0x1d, 0xbe, 0xc6, 0x2a, 0x0a, 0xbe,
  0xde, 0x74, 0x29, 0x3d, 0xbf, 0xb8, 0x7c, 0xbe, 0x21, 0x9f, 0x03, 0xbe,
  0xf8, 0xa7, 0x65, 0xbe, 0x60, 0x0d, 0x0f, 0xbe, 0xb9, 0x86, 0x08, 0xbe,
  0xf3, 0xb9, 0x88, 0x3b, 0xd9, 0x7c, 0x4e, 0x3d, 0x59, 0x78, 0x22, 0x3e,
  0xdc, 0x48, 0x21, 0x3c, 0x47, 0x97, 0x09, 0xbd, 0xec, 0x00, 0x60, 0x3e,
  0xf9, 0x71, 0x7c, 0x3e, 0x12, 0xa3, 0x53, 0x3c, 0xf7, 0x17, 0x91, 0x3e,
  0x72, 0xce, 0x8b, 0x3d, 0xd9, 0x6d, 0x3a, 0xbd, 0xeb, 0xf5, 0x87, 0x3e,
  0x2a, 0x38, 0xbf, 0x3d, 0xc2, 0x38, 0x6b, 0x3e, 0x34, 0x06, 0x86, 0x3c,
  0x34, 0x07, 0x32, 0xbe, 0x6c, 0xf3, 0x8a, 0xbd, 0xf6, 0x1b, 0x23, 0x3c,
  0xa6, 0xef, 0x07, 0xbe, 0x42, 0xb6, 0x3a, 0x3e, 0x25, 0xcf, 0x49, 0xbe,
  0x12, 0xf5, 0xea, 0xbd, 0x0b, 0xb7, 0x71, 0x3e, 0xbe, 0x33, 0x9c, 0x3e,
  0x3e, 0xa2, 0x2a, 0x3c, 0xdb, 0x5e, 0x1a, 0x3e, 0xe5, 0x9a, 0x4e, 0xbe,
  0x89, 0xee, 0x59, 0xbd, 0x15, 0x72, 0x65, 0x3e, 0x90, 0xbb, 0x71, 0x3e,
  0x9f, 0xe4, 0x85, 0xbe, 0x76, 0x27, 0x0f, 0x3e, 0xf0, 0xfe, 0xb2, 0xbd,
  0x13, 0xe5, 0xa6, 0xbc, 0x7a, 0x17, 0x3f, 0x3e, 0xeb, 0xdd, 0x55, 0x3e,
  0x4e, 0x46, 0xb3, 0xba, 0xc3, 0x5d, 0x8b, 0x3e, 0xcd, 0x33, 0x8c, 0x3e,
  0xfc, 0x7e, 0xeb, 0xbd, 0xa9, 0x1d, 0x20, 0x3e, 0x69, 0xb8, 0x69, 0x3d,
  0xf2, 0x49, 0x05, 0xbd, 0x1f, 0x49, 0x5b, 0xbe, 0xdd, 0xb9, 0x0c, 0xbe,
  0x79, 0x1d, 0x7c, 0x3e, 0x38, 0x22, 0x24, 0xbd, 0x1a, 0xfc, 0x4f, 0x3e,
  0x9c, 0x82, 0xf6, 0xbd, 0x52, 0x7b, 0xcf, 0xbd, 0xc0, 0xa8, 0x08, 0xbe,
  0x8e, 0xef, 0x8b, 0xbe, 0x15, 0xa3, 0x35, 0xbe, 0xf9, 0x34, 0x1f, 0xbe,
  0x10, 0xf5, 0x54, 0xbe, 0xb9, 0xa3, 0x22, 0xbe, 0x83, 0xfa, 0x3d, 0x3e,
  0xda, 0x0e, 0x60, 0x3e, 0xcc, 0x47, 0x90, 0x3e, 0x43, 0xe6, 0x22, 0x3d,
  0xca, 0xbf, 0x63, 0x3e, 0xad, 0x85, 0x76, 0x3e, 0x87, 0xeb, 0x9e, 0x3d,
  0xe2, 0x35, 0x3f, 0x3e, 0x49, 0xbe, 0x62, 0x3c, 0x38, 0xef, 0xef, 0x3d,
  0x36, 0x69, 0xc2, 0x3c, 0xd2, 0x36, 0xec, 0x3d, 0x04, 0x81, 0x01, 0xbe,
  0x57, 0xb4, 0xf7, 0xbd, 0x38, 0xdd, 0x7a, 0x3b, 0x82, 0x46, 0x88, 0xbe,
  0xe4, 0x71, 0x28, 0xbe, 0xeb, 0x1d, 0x14, 0xbd, 0x55, 0xc4, 0x7e, 0xbe,
  0xd6, 0x96, 0x8b, 0x3e, 0x91, 0x3d, 0x8a, 0x3e, 0xb9, 0x36, 0x12, 0x3e,
  0x54, 0xb0, 0x58, 0xbe, 0x5a, 0xd1, 0x55, 0x3e, 0xad, 0x41, 0x86, 0xbd,
  0xb6, 0x87, 0x33, 0xbd, 0xca, 0x60, 0xb4, 0xbb, 0x27, 0x85, 0x6d, 0x3e,
  0x85, 0x9a, 0x5f, 0xbe, 0x73, 0xaa, 0x05, 0xbe, 0x26, 0xeb, 0x8c, 0xbe,
  0x09, 0x32, 0x9e, 0x3c, 0xee, 0xa6, 0x0d, 0x3e, 0x79, 0x38, 0x82, 0xbe,
  0x9d, 0x64, 0x91, 0xbd, 0xf9, 0x5a, 0xfb, 0xbb, 0xb1, 0xd5, 0x15, 0x3e,
  0x9a, 0x9e, 0x20, 0xbe, 0x3c, 0x54, 0xa0, 0x3d, 0x4f, 0xf4, 0x90, 0x3d,
  0xb1, 0x50, 0x18, 0x3e, 0x5e, 0x81, 0x18, 0x3d, 0xb4, 0x33, 0x5e, 0x3e,
  0x36, 0x29, 0xb3, 0xbd, 0x5b, 0xb7, 0x2b, 0x3e, 0x39, 0x17, 0xac, 0x3d,
  0x99, 0x02, 0xd4, 0xbc, 0xe3, 0x10, 0x61, 0xbe, 0x9d, 0x6b, 0x91, 0x3d,
  0xba, 0x97, 0x26, 0x3e, 0x70, 0xdc, 0x89, 0x3e, 0x1f, 0x52, 0x29, 0x3e,
  0x4f, 0x40, 0x65, 0x3e, 0x83, 0x57, 0x96, 0x3d, 0xa6, 0xa0, 0xd0, 0xbb,
  0xb2, 0xc3, 0x10, 0x3e, 0x26, 0xa3, 0x1d, 0x3e, 0xd9, 0x39, 0x59, 0x3e,
  0xc9, 0x68, 0xd9, 0xbb, 0x89, 0x8c, 0x39, 0xbe, 0x54, 0x73, 0x1a, 0xbd,
  0xd5, 0x66, 0x25, 0x3e, 0xef, 0x5c, 0x52, 0xbe, 0xbb, 0xb0, 0xf3, 0x3d,
  0xe1, 0xe1, 0x3f, 0x3e, 0x95, 0x34, 0xe6, 0x3d, 0xf7, 0x30, 0x56, 0xbe,
  0xc8, 0x57, 0x2b, 0x3e, 0xe8, 0x30, 0x06, 0x3e, 0x57, 0x98, 0xa3, 0xbd,
  0x46, 0x47, 0x51, 0x3d, 0x62, 0xc1, 0x31, 0x3e, 0xb7, 0x74, 0x98, 0x3d,
  0xe1, 0xaf, 0xe5, 0x3d, 0x06, 0x52, 0x45, 0x3e, 0x2a, 0xc0, 0xa0, 0xbc,
  0xc6, 0x09, 0x20, 0xbe, 0x9a, 0x63, 0x28, 0xbc, 0x46, 0xf7, 0x53, 0x3d,
  0xbb, 0xd3, 0x9d, 0xbd, 0x56, 0xcb, 0x84, 0x3e, 0x7b, 0x41, 0xcf, 0xbd,
  0x44, 0xa4, 0x29, 0xbe, 0x5b, 0xf9, 0x82, 0xbd, 0x8a, 0x50, 0x17, 0x3e,
  0xdd, 0x15, 0x90, 0x3e, 0x2a, 0xe4, 0x4c, 0xbd, 0xf6, 0x29, 0x81, 0xbe,
  0x2d, 0x19, 0x85, 0xbd, 0xcd, 0x6c, 0x70, 0xbc, 0x71, 0x7a, 0x32, 0x3d,
  0xe9, 0x4d, 0x2c, 0xbd, 0xef, 0x78, 0x43, 0xbe, 0x38, 0x66, 0x0d, 0xbe,
  0x8a, 0xab, 0x6b, 0x3e, 0xcc, 0x3e, 0x3c, 0xbe, 0x86, 0xd8, 0x19, 0x3e,
  0x6f, 0x17, 0x58, 0xbd, 0xf6, 0xbf, 0x9a, 0x3d, 0x2b, 0xc0, 0x43, 0xbe,
  0x4e, 0x85, 0x59, 0x3e, 0x2a, 0x04, 0x34, 0xbe, 0x68, 0x85, 0x5f, 0xbe,
  0x55, 0xc1, 0xf6, 0x3d, 0x2a, 0xb8, 0x5e, 0xbe, 0xb1, 0xe0, 0xe4, 0x3d,
  0x1a, 0xa1, 0xb9, 0x3d, 0xd9, 0x52, 0xa3, 0xbd, 0xc5, 0x4c, 0x2a, 0xbe,
  0x5a, 0x36, 0x14, 0xbe, 0xc4, 0x90, 0xa2, 0x3d, 0x43, 0x17, 0x75, 0x3e,
  0x01, 0x18, 0x02, 0x3d, 0x59, 0xf4, 0x09, 0x3c, 0x0a, 0x41, 0x6b, 0xbe,
  0x02, 0xa1, 0xfa, 0xbd, 0xb1, 0xb1, 0xd0, 0xbd, 0x86, 0x41, 0x4d, 0xbe,
  0xa7, 0x24, 0x0b, 0x3e, 0xf0, 0xa8, 0x24, 0x3e, 0x95, 0x62, 0x83, 0x3e,
  0xd0, 0xa5, 0x20, 0xbc, 0x60, 0xac, 0x9a, 0x3e, 0xec, 0xdb, 0x90, 0x3c,
  0x6c, 0x22, 0x44, 0xbe, 0x9b, 0xae, 0x36, 0xbb, 0x9e, 0xf0, 0x59, 0xbd,
  0x2a, 0x12, 0x2f, 0x3e, 0x6e, 0x80, 0xba, 0xbd, 0x30, 0xf7, 0x5e, 0xbe,
  0x0b, 0xf4, 0x25, 0x3d, 0x56, 0x32, 0x5c, 0x3e, 0x20, 0xc5, 0x0b, 0x3e,
  0xa0, 0xa5, 0x3e, 0x3e, 0xa6, 0x5e, 0xa4, 0x3d, 0x53, 0x9d, 0x98, 0x39,
  0xe0, 0x18, 0x6f, 0x3d, 0x64, 0x35, 0xe7, 0xbd, 0x02, 0xb2, 0xc6, 0x3d,
  0x17, 0x93, 0xf0, 0xbd, 0xe0, 0xaf, 0xf5, 0xbd, 0x33, 0x3f, 0xb7, 0x3c,
  0x40, 0x63, 0x76, 0xbe, 0x9b, 0x86, 0x21, 0xbe, 0xff, 0x1f, 0x72, 0xbe,
  0x1d, 0xd3, 0x55, 0x3e, 0x47, 0x90, 0x85, 0x3e, 0xbd, 0x57, 0x6e, 0x3d,
  0x51, 0x5f, 0xed, 0x3d, 0xb3, 0x4d, 0x0f, 0xbe, 0x26, 0xc3, 0x83, 0xbe,
  0xcc, 0x1f, 0x3a, 0x3e, 0xc1, 0xaf, 0x60, 0x3e, 0x12, 0xd1, 0xc9, 0x3d,
  0x92, 0x9c, 0x95, 0x3e, 0xf6, 0xa5, 0x13, 0x3e, 0x54, 0xd1, 0x08, 0xbe,
  0x0d, 0xe2, 0x60, 0x3e, 0x36, 0x33, 0x4a, 0xbe, 0x37, 0x87, 0x57, 0x3e,
  0x72, 0x05, 0x58, 0xbe, 0xc7, 0xeb, 0x54, 0x3e, 0x86, 0x1a, 0x55, 0xbe,
  0x30, 0x6c, 0x95, 0x3e, 0x62, 0xcd, 0x5d, 0xbe, 0x82, 0x5d, 0x4a, 0xbe,
  0x3f, 0x27, 0x7d, 0x3e, 0xf9, 0x25, 0x49, 0x3b, 0x28, 0x9c, 0xc2, 0xbd,
  0xdb, 0xef, 0xd9, 0x3d, 0x85, 0x3d, 0x8a, 0xbe, 0x34, 0x83, 0xee, 0xbd,
  0x84, 0x78, 0xe3, 0x3b, 0x2f, 0xc8, 0x49, 0xbe, 0xb1, 0x61, 0xb1, 0x3d,
  0x1a, 0xe3, 0xd4, 0x3d, 0x3f, 0x86, 0x46, 0x3d, 0x6a, 0x61, 0x91, 0xbd,
  0xe2, 0xd0, 0x3d, 0xbd, 0x31, 0xb3, 0x03, 0xbe, 0x53, 0x14, 0x69, 0xbc,
  0x15, 0xfd, 0xc2, 0xbd, 0x87, 0x54, 0xeb, 0xbd, 0x9a, 0xc4, 0x28, 0xbc,
  0x84, 0xcf, 0x04, 0xbe, 0xb4, 0xa7, 0xb2, 0xbd, 0x4e, 0x4c, 0x52, 0xbd,
  0x3e, 0x77, 0x44, 0x3e, 0x6c, 0x0c, 0xc3, 0xbd, 0x36, 0xdf, 0xdd, 0xbd,
  0x12, 0xbb, 0xcb, 0xbd, 0xd8, 0x4b, 0xcc, 0x3d, 0x45, 0x21, 0xc4, 0xbd,
  0x27, 0x8d, 0x76, 0xbe, 0x6d, 0xe6, 0x88, 0x3d, 0xe5, 0xf5, 0x5c, 0xbe,
  0x0c, 0xd9, 0x3c, 0xbe, 0x93, 0x88, 0x88, 0x3d, 0x73, 0x8f, 0x90, 0xbd,
  0x8a, 0xd1, 0x3a, 0x3e, 0x91, 0x1b, 0x89, 0x3d, 0xc1, 0xca, 0xba, 0x3d,
  0x10, 0x16, 0x35, 0xbe, 0x63, 0x07, 0x51, 0xbe, 0x24, 0x7a, 0xfe, 0xbd,
  0x4b, 0x11, 0x03, 0x3d, 0xdb, 0x4e, 0x6f, 0x3e, 0x95, 0x47, 0x12, 0x3e,
  0x61, 0x09, 0x4b, 0x3e, 0x92, 0xc5, 0x24, 0xbe, 0x2d, 0x4e, 0xc7, 0x3d,
  0xae, 0xe3, 0x13, 0xbe, 0x1f, 0x1e, 0x01, 0x3d, 0xf7, 0x38, 0x20, 0x3d,
  0x8a, 0xa2, 0xb7, 0x3d, 0x9a, 0x1e, 0x29, 0x3e, 0x65, 0xb2, 0x95, 0xbd,
  0x02, 0x8d, 0xb1, 0x3c, 0x78, 0x19, 0xf6, 0x3d, 0xc0, 0x99, 0xca, 0xbc,
  0x08, 0xac, 0x61, 0xbd, 0x1c, 0x2b, 0xfe, 0xbd, 0x0e, 0x54, 0x3b, 0x3e,
  0x9d, 0xf9, 0x89, 0x3e, 0x40, 0x9b, 0x8c, 0x3c, 0x40, 0x94, 0x01, 0xbd,
  0xbf, 0xef, 0x37, 0xbe, 0xb0, 0x04, 0x4f, 0xbe, 0x36, 0x7b, 0x85, 0xbe,
  0xd0, 0xae, 0xa0, 0xbd, 0x50, 0xc9, 0x54, 0xbe, 0xcc, 0x94, 0x0a, 0xbe,
  0x5c, 0x59, 0x52, 0xbd, 0x3a, 0x35, 0x7e, 0x3e, 0x13, 0xe5, 0x71, 0xbe,
  0x83, 0xd6, 0x75, 0x3e, 0x31, 0x5e, 0xee, 0x3c, 0x94, 0xfc, 0xb1, 0x3d,
  0xab, 0xa2, 0x13, 0x3e, 0x53, 0x35, 0x95, 0x3d, 0xc0, 0xc9, 0x5a, 0x3e,
  0xff, 0xde, 0xcb, 0x3d, 0x31, 0x2e, 0x23, 0xbe, 0x8f, 0xbc, 0x71, 0x3e,
  0x40, 0xa2, 0x2e, 0xbe, 0x68, 0xe9, 0x41, 0x3e, 0x02, 0x34, 0x86, 0x3d,
  0xa3, 0x84, 0xed, 0x3d, 0xa0, 0xd8, 0x33, 0xbe, 0x8e, 0x01, 0x02, 0xbe,
  0x3c, 0x7f, 0x69, 0xbe, 0x87, 0xa6, 0x39, 0x3d, 0xf9, 0xfd, 0xf6, 0x3d,
  0x1f, 0x39, 0xcf, 0xbd, 0xd9, 0x0e, 0x2a, 0x3d, 0xf1, 0x97, 0xe2, 0x3d,
  0x55, 0x75, 0x6e, 0xbe, 0xc1, 0x33, 0x84, 0xbe, 0x92, 0xa3, 0x19, 0x3e,
  0x0a, 0x96, 0x42, 0xbd, 0x48, 0x96, 0x29, 0x3e, 0xf1, 0xee, 0x35, 0xbe,
  0xba, 0xac, 0x72, 0xbd, 0x56, 0xfa, 0xff, 0xff, 0x04, 0x00, 0x00, 0x00,
  0x00, 0x01, 0x00, 0x00, 0x75, 0xcd, 0x0c, 0xbd, 0x8d, 0x4e, 0xd8, 0xbb,
  0xb1, 0x76, 0xd8, 0x3d, 0x98, 0xbf, 0xac, 0xbc, 0x00, 0x00, 0x00, 0x00,
  0x66, 0x62, 0x59, 0xbb, 0x87, 0xb6, 0xd2, 0xbc, 0x05, 0x3d, 0x23, 0xbd,
  0x06, 0xf9, 0x51, 0x3e, 0x32, 0x51, 0x4a, 0xbc, 0x00, 0x00, 0x00, 0x00,
  0xd9, 0xd9, 0x16, 0xbd, 0xac, 0x97, 0x1a, 0xbd, 0x81, 0x94, 0xb8, 0xbc,
  0x5d, 0x80, 0xfb, 0xbc, 0x65, 0xe7, 0x12, 0xbd, 0x97, 0x3d, 0xd1, 0xbc,
  0x64, 0xd6, 0x77, 0xbc, 0x49, 0x20, 0xc5, 0xbc, 0xe4, 0x04, 0x93, 0xbc,
  0x97, 0x04, 0x41, 0xbb, 0x7b, 0xa6, 0x0b, 0x3e, 0xeb, 0xba, 0x24, 0xbc,
  0x1e, 0x56, 0x1e, 0xbc, 0x36, 0x5c, 0x3c, 0x3e, 0x7e, 0x5b, 0x84, 0xbc,
  0x70, 0xeb, 0xa1, 0x3d, 0x00, 0x00, 0x00, 0x00, 0x00, 0x00, 0x00, 0x00,
  0x99, 0x38, 0x2d, 0xbd, 0xed, 0x3f, 0xf2, 0x3d, 0x5b, 0x2e, 0xdb, 0xbb,
  0xe3, 0x7c, 0x3d, 0x3e, 0x60, 0x1f, 0x19, 0x3e, 0x6d, 0x15, 0x5a, 0xbc,
  0xa5, 0x1a, 0xc7, 0xbc, 0x9d, 0x67, 0x84, 0xbc, 0xfb, 0x5b, 0x22, 0xbd,
  0x9f, 0xf3, 0x26, 0xbd, 0x24, 0x32, 0x21, 0x3e, 0xf5, 0x1e, 0xf9, 0xbc,
  0x9e, 0x81, 0x14, 0x3e, 0x5c, 0xaf, 0x12, 0xbd, 0x1d, 0xf9, 0xc3, 0xbc,
  0xf8, 0xc0, 0x13, 0xbd, 0x97, 0x56, 0xc7, 0xbc, 0xa4, 0x01, 0x2e, 0xbc,
  0xca, 0xdd, 0xb3, 0x3d, 0xd1, 0x5e, 0x87, 0xbc, 0x01, 0x94, 0xc9, 0x3d,
  0x73, 0x99, 0xc3, 0xbc, 0x9d, 0x4e, 0x61, 0x3e, 0x9c, 0x37, 0xba, 0xbc,
  0x2a, 0x12, 0x0d, 0xbd, 0x14, 0xdc, 0x22, 0x3e, 0xa1, 0xff, 0x29, 0xbc,
  0x2f, 0x13, 0xa9, 0xbb, 0xd7, 0x35, 0x02, 0xbd, 0x45, 0x06, 0x0a, 0xbd,
  0xc9, 0x98, 0xd7, 0xbc, 0x62, 0x0f, 0x18, 0x3e, 0x00, 0x00, 0x00, 0x00,
  0x55, 0xd8, 0xeb, 0xbc, 0x46, 0x08, 0x00, 0xbd, 0x62, 0xfb, 0xff, 0xff,
  0x04, 0x00, 0x00, 0x00, 0x00, 0x04, 0x00, 0x00, 0x7f, 0x2f, 0x06, 0x3e,
  0x6a, 0xcf, 0x5d, 0x3e, 0x07, 0xca, 0x25, 0x3d, 0x09, 0x76, 0xf4, 0x3b,
  0x4c, 0x50, 0x08, 0xbe, 0x54, 0x65, 0x52, 0x3e, 0xb6, 0xa7, 0x4b, 0x3e,
  0xd4, 0x25, 0xe6, 0x3d, 0x9e, 0x05, 0x33, 0xbe, 0x51, 0x34, 0x98, 0xbd,
  0x81, 0x8f, 0x90, 0xbe, 0xe8, 0xa7, 0x19, 0x3e, 0x5d, 0xbc, 0x7a, 0x3e,
  0xcd, 0x5c, 0x4f, 0x3e, 0xc4, 0xbd, 0x19, 0xbd, 0x95, 0x43, 0x7b, 0xbd,
  0x2e, 0xef, 0x75, 0x3e, 0xc4, 0xd3, 0x94, 0x3d, 0x97, 0xb1, 0xed, 0x3d,
  0x60, 0xd4, 0x56, 0xbd, 0x11, 0x6c, 0x5e, 0x3e, 0x23, 0x01, 0x98, 0xbe,
  0xf1, 0x12, 0x4a, 0x3e, 0xee, 0x24, 0x0b, 0xbe, 0x0f, 0x84, 0x5b, 0xbe,
  0xa1, 0x8a, 0x65, 0xbe, 0xff, 0x08, 0x59, 0xbe, 0x55, 0xe7, 0x06, 0xbe,
  0x60, 0xae, 0x79, 0xbe, 0x32, 0x39, 0x06, 0x3c, 0xf6, 0x34, 0x22, 0xbe,
  0x61, 0x59, 0x0b, 0x3d, 0x73, 0x17, 0x5c, 0x3e, 0xc1, 0x72, 0x20, 0xbe,
  0xdd, 0xc4, 0xef, 0x3d, 0xdf, 0x02, 0x77, 0xbe, 0x48, 0x58, 0x1b, 0x3e,
  0x61, 0x29, 0xda, 0x3d, 0x60, 0xae, 0x26, 0x3d, 0x98, 0x94, 0x22, 0xbc,
  0xd0, 0x10, 0x05, 0xbe, 0x5e, 0xd2, 0x71, 0x3e, 0x18, 0x91, 0x35, 0x3e,
  0x47, 0xbe, 0xbd, 0xbd, 0xb4, 0x2e, 0x07, 0xbe, 0x7e, 0xdf, 0x79, 0xbe,
  0x86, 0x57, 0x26, 0xbe, 0x13, 0xfa, 0x86, 0x3e, 0x44, 0x21, 0x22, 0xbc,
  0xe5, 0x85, 0x02, 0xbe, 0x38, 0xb5, 0x87, 0xbe, 0xe8, 0xa1, 0xa4, 0xbd,
  0x7a, 0x10, 0x91, 0x3e, 0x96, 0x9c, 0x66, 0x3d, 0x1c, 0x22, 0x24, 0xbe,
  0x16, 0x23, 0x4a, 0xbe, 0xb5, 0x08, 0x57, 0x3e, 0x64, 0xbc, 0x32, 0x3e,
  0xd2, 0xe8, 0x63, 0x3e, 0xab, 0xd8, 0x6a, 0x3e, 0x14, 0xc7, 0xab, 0xbd,
  0xd8, 0xd6, 0x5d, 0x3e, 0x4c, 0x36, 0xf7, 0x3d, 0x60, 0xd2, 0x58, 0x3e,
  0xfa, 0xde, 0x8e, 0x3d, 0x05, 0x9a, 0x9e, 0x3c, 0x2a, 0xdf, 0xaa, 0x3e,
  0xa4, 0xed, 0xdf, 0xbd, 0xf8, 0x26, 0x4d, 0x3e, 0xda, 0x2e, 0xcd, 0x3c,
  0x42, 0x0e, 0xf0, 0x3d, 0x1b, 0xab, 0x82, 0xbe, 0xd1, 0xaf, 0x34, 0x3e,
  0x21, 0x27, 0xba, 0xbd, 0xac, 0x83, 0x11, 0xbe, 0xf7, 0xdb, 0x53, 0xbe,
  0xa9, 0xda, 0x83, 0x3d, 0x7f, 0x09, 0x0b, 0x3e, 0x02, 0x0b, 0x74, 0xbe,
  0x65, 0x02, 0x0c, 0xbe, 0x03, 0x73, 0xbb, 0xbd, 0x3b, 0x24, 0x74, 0x3e,
  0xc8, 0x23, 0x79, 0x3d, 0x9b, 0x20, 0xbf, 0xbc, 0x47, 0x06, 0x68, 0xbd,
  0xc8, 0xb9, 0x3e, 0x3d, 0xc2, 0xc4, 0x52, 0x3d, 0x64, 0x29, 0x4b, 0x3e,
  0xa0, 0xb0, 0x73, 0xbd, 0x9f, 0xc6, 0x86, 0xbe, 0x46, 0x3e, 0x49, 0x3e,
  0xd3, 0x1a, 0x4e, 0xbe, 0x1a, 0x6e, 0x6a, 0xbe, 0x1b, 0x2c, 0xa6, 0xbc,
  0xf7, 0x68, 0x1e, 0x3e, 0xd8, 0xe6, 0x17, 0x3d, 0xc0, 0x3c, 0xda, 0xbe,
  0x58, 0x6e, 0x21, 0xbd, 0xb3, 0xa3, 0x57, 0x3d, 0x05, 0xe1, 0x5b, 0xbe,
  0x21, 0xdc, 0x1d, 0x3c, 0x2e, 0x79, 0x3f, 0xbe, 0x94, 0xa1, 0x0c, 0xbe,
  0x21, 0xf8, 0xb8, 0xbd, 0x4c, 0x4f, 0x38, 0xbe, 0x09, 0x37, 0x51, 0xbe,
  0xed, 0x04, 0x7f, 0x3d, 0xcc, 0xb7, 0x03, 0xbe, 0xfd, 0x46, 0x81, 0xbe,
  0x34, 0x16, 0x14, 0xbe, 0x36, 0x24, 0xf3, 0x3d, 0x92, 0x78, 0x36, 0xbd,
  0xe4, 0xf8, 0x61, 0xbe, 0x07, 0x1b, 0x69, 0x3e, 0x44, 0xfe, 0x63, 0xbe,
  0x10, 0x25, 0xe3, 0xbe, 0x8d, 0x86, 0x7d, 0x3d, 0x30, 0xcf, 0x17, 0xbe,
  0x7d, 0x20, 0x8a, 0xbd, 0xb0, 0xb0, 0xbe, 0xbc, 0xab, 0xeb, 0x01, 0x3e,
  0xdb, 0x9e, 0x7f, 0xbe, 0xea, 0x71, 0x01, 0xbe, 0xbe, 0x66, 0x5c, 0x3e,
  0x1c, 0x09, 0x8a, 0x3e, 0xe7, 0x0d, 0x14, 0xbe, 0xa2, 0xd0, 0x2d, 0xbd,
  0x34, 0x94, 0xe0, 0x3c, 0xaa, 0x1d, 0xd9, 0x3d, 0xce, 0x45, 0x61, 0x3c,
  0x27, 0x8a, 0xbe, 0xbd, 0x6e, 0xbb, 0x39, 0x3e, 0xe6, 0xa8, 0x83, 0x3e,
  0x15, 0x65, 0x41, 0xbd, 0x1c, 0x4e, 0x5b, 0x3e, 0xc5, 0xa3, 0x34, 0xba,
  0x5e, 0x46, 0x85, 0xbe, 0x44, 0x5c, 0x1a, 0xbe, 0xd0, 0x5b, 0xe2, 0x3c,
  0x00, 0xb2, 0x73, 0x3e, 0xf0, 0x21, 0x1b, 0x3d, 0x08, 0xc0, 0x3b, 0x3e,
  0x48, 0xc4, 0x1e, 0x3e, 0xf2, 0x08, 0x8c, 0xbe, 0x09, 0x3e, 0x05, 0xbe,
  0xfa, 0x6c, 0x68, 0x3e, 0xbf, 0x7c, 0x60, 0x3e, 0x80, 0x02, 0x8a, 0xbe,
  0x67, 0xb6, 0x2a, 0x3e, 0x95, 0x3d, 0x1b, 0xbe, 0x5f, 0x30, 0x95, 0xbd,
  0xc7, 0xab, 0x02, 0x3e, 0x56, 0x00, 0x9a, 0xbe, 0x24, 0xf6, 0x38, 0x3e,
  0xfa, 0x5e, 0x78, 0xbe, 0x58, 0xd0, 0x01, 0x3d, 0xb0, 0xc0, 0x89, 0xbe,
  0x8c, 0xe2, 0x93, 0x3e, 0x86, 0xc0, 0x87, 0x3e, 0xde, 0x1e, 0x85, 0xbe,
  0xa9, 0x58, 0x81, 0xbd, 0xce, 0x3b, 0x3f, 0xbe, 0x48, 0x3c, 0x2b, 0xbe,
  0x8d, 0x90, 0xe1, 0xbd, 0xaa, 0x3a, 0x33, 0xbd, 0xfb, 0x04, 0x07, 0xbe,
  0x00, 0xc5, 0x18, 0xbe, 0xd0, 0xa5, 0x83, 0xbe, 0x4c, 0x09, 0x51, 0x3e,
  0xfd, 0xf5, 0x86, 0xbe, 0xb2, 0x25, 0x28, 0x3e, 0x53, 0x2b, 0x41, 0xbd,
  0x64, 0x4a, 0xad, 0xbd, 0xd1, 0xc2, 0x7a, 0x3e, 0xc7, 0x7d, 0x14, 0x3e,
  0xe5, 0x41, 0x04, 0xbe, 0x88, 0x6e, 0x4d, 0x3d, 0x1e, 0x0f, 0x74, 0xbe,
  0x2b, 0xb9, 0x65, 0x3e, 0x48, 0x19, 0x90, 0x3e, 0x29, 0x36, 0x7c, 0x3e,
  0x45, 0x22, 0x17, 0x3e, 0xac, 0x41, 0xae, 0xbe, 0xfd, 0xc9, 0x92, 0xbe,
  0xea, 0xd8, 0x99, 0xbe, 0x09, 0x79, 0xa8, 0xbd, 0xec, 0xc1, 0x83, 0x3e,
  0xf0, 0x39, 0x9c, 0x3d, 0xc6, 0x19, 0xd2, 0xbe, 0x42, 0xa8, 0x77, 0xbe,
  0x75, 0xd4, 0x86, 0x3e, 0x5c, 0x4b, 0xa9, 0xbd, 0xd0, 0x8a, 0x56, 0x3d,
  0xef, 0x55, 0x6a, 0xbe, 0x26, 0xc4, 0x82, 0x3e, 0x86, 0xd1, 0x94, 0x3d,
  0xb0, 0x86, 0x6f, 0x3e, 0x62, 0xe3, 0xda, 0x3c, 0x0e, 0x91, 0x01, 0xbe,
  0xcb, 0x2c, 0x0b, 0xbd, 0x79, 0xd3, 0xf3, 0x3e, 0x04, 0x4f, 0x6d, 0x3e,
  0x90, 0x7b, 0xbf, 0xbc, 0x56, 0xab, 0x13, 0x3e, 0xb0, 0x55, 0x43, 0x3e,
  0x4c, 0x31, 0xe5, 0xbd, 0x9b, 0x2a, 0x9a, 0xbe, 0xf4, 0xd2, 0xf8, 0xbd,
  0xdf, 0x70, 0x0e, 0x3e, 0xa4, 0xd3, 0x58, 0xbe, 0xc4, 0xee, 0x6e, 0xbe,
  0xe0, 0x6f, 0xee, 0x3d, 0x9d, 0xe4, 0xeb, 0xbd, 0x8c, 0xbf, 0x4d, 0x3e,
  0x73, 0x3f, 0x20, 0x3c, 0x9a, 0x9a, 0x6e, 0xbe, 0x30, 0x54, 0x7b, 0x3e,
  0xec, 0x3d, 0x3b, 0x3e, 0xcb, 0x54, 0xbf, 0x3c, 0x88, 0xfd, 0x0d, 0x3d,
  0x60, 0x1e, 0x54, 0x3e, 0x0b, 0xcc, 0x76, 0x3e, 0x73, 0x05, 0x78, 0x3e,
  0x8e, 0x64, 0x50, 0xbe, 0x34, 0xba, 0xe5, 0x3e, 0x24, 0x20, 0x22, 0xbd,
  0xb8, 0x89, 0xc3, 0x3d, 0x47, 0x38, 0xb5, 0x3c, 0x9e, 0xee, 0x09, 0xbe,
  0x3c, 0xb0, 0xa2, 0x3d, 0x50, 0x8a, 0x81, 0x3e, 0x92, 0x90, 0x3b, 0x3e,
  0x8e, 0x8b, 0x81, 0x3d, 0xdb, 0x4b, 0x4d, 0x3e, 0xeb, 0x5e, 0xdc, 0x3d,
  0xeb, 0xcc, 0x64, 0xbe, 0xe5, 0x4e, 0x7a, 0xbd, 0x94, 0x97, 0xa6, 0x3d,
  0x4c, 0xee, 0x51, 0xbe, 0x84, 0x63, 0xf6, 0x3d, 0x2c, 0xc4, 0xbc, 0x3d,
  0x69, 0x39, 0x15, 0x3e, 0x11, 0xf3, 0xaa, 0x3d, 0x12, 0xfe, 0xc1, 0x3e,
  0x20, 0x88, 0x90, 0x3e, 0x8d, 0xfd, 0xd8, 0xbd, 0x4f, 0x22, 0xe1, 0xbd,
  0xf2, 0xe7, 0x36, 0xbe, 0x8f, 0xdb, 0x05, 0xbe, 0xa4, 0x95, 0x0d, 0x3e,
  0xb4, 0x9e, 0xfc, 0xbd, 0xd1, 0x82, 0xf8, 0x3d, 0x54, 0xc5, 0xbb, 0x3d,
  0xca, 0xfa, 0xa6, 0xbd, 0xc2, 0xab, 0x95, 0xbe, 0xe3, 0x76, 0x27, 0x3e,
  0xc8, 0xfb, 0xff, 0xff, 0xcc, 0xfb, 0xff, 0xff, 0x0f, 0x00, 0x00, 0x00,
  0x4d, 0x4c, 0x49, 0x52, 0x20, 0x43, 0x6f, 0x6e, 0x76, 0x65, 0x72, 0x74,
  0x65, 0x64, 0x2e, 0x00, 0x01, 0x00, 0x00, 0x00, 0x14, 0x00, 0x00, 0x00,
  0x00, 0x00, 0x0e, 0x00, 0x18, 0x00, 0x14, 0x00, 0x10, 0x00, 0x0c, 0x00,
  0x08, 0x00, 0x04, 0x00, 0x0e, 0x00, 0x00, 0x00, 0x14, 0x00, 0x00, 0x00,
  0x1c, 0x00, 0x00, 0x00, 0xec, 0x00, 0x00, 0x00, 0xf0, 0x00, 0x00, 0x00,
  0xf4, 0x00, 0x00, 0x00, 0x04, 0x00, 0x00, 0x00, 0x6d, 0x61, 0x69, 0x6e,
  0x00, 0x00, 0x00, 0x00, 0x03, 0x00, 0x00, 0x00, 0x94, 0x00, 0x00, 0x00,
  0x50, 0x00, 0x00, 0x00, 0x14, 0x00, 0x00, 0x00, 0x00, 0x00, 0x0e, 0x00,
  0x1a, 0x00, 0x14, 0x00, 0x10, 0x00, 0x0c, 0x00, 0x0b, 0x00, 0x04, 0x00,
  0x0e, 0x00, 0x00, 0x00, 0x1c, 0x00, 0x00, 0x00, 0x00, 0x00, 0x00, 0x09,
  0x1c, 0x00, 0x00, 0x00, 0x20, 0x00, 0x00, 0x00, 0x01, 0x00, 0x00, 0x00,
  0x00, 0x00, 0x06, 0x00, 0x08, 0x00, 0x04, 0x00, 0x06, 0x00, 0x00, 0x00,
  0x00, 0x00, 0x80, 0x3f, 0x01, 0x00, 0x00, 0x00, 0x07, 0x00, 0x00, 0x00,
  0x01, 0x00, 0x00, 0x00, 0x06, 0x00, 0x00, 0x00, 0xce, 0xff, 0xff, 0xff,
  0x10, 0x00, 0x00, 0x00, 0x00, 0x00, 0x00, 0x08, 0x0c, 0x00, 0x00, 0x00,
  0x10, 0x00, 0x00, 0x00, 0x8c, 0xfc, 0xff, 0xff, 0x01, 0x00, 0x00, 0x00,
  0x06, 0x00, 0x00, 0x00, 0x03, 0x00, 0x00, 0x00, 0x05, 0x00, 0x00, 0x00,
  0x01, 0x00, 0x00, 0x00, 0x04, 0x00, 0x00, 0x00, 0x00, 0x00, 0x0e, 0x00,
  0x16, 0x00, 0x00, 0x00, 0x10, 0x00, 0x0c, 0x00, 0x0b, 0x00, 0x04, 0x00,
  0x0e, 0x00, 0x00, 0x00, 0x18, 0x00, 0x00, 0x00, 0x00, 0x00, 0x00, 0x08,
  0x18, 0x00, 0x00, 0x00, 0x1c, 0x00, 0x00, 0x00, 0x00, 0x00, 0x06, 0x00,
  0x08, 0x00, 0x07, 0x00, 0x06, 0x00, 0x00, 0x00, 0x00, 0x00, 0x00, 0x01,
  0x01, 0x00, 0x00, 0x00, 0x05, 0x00, 0x00, 0x00, 0x03, 0x00, 0x00, 0x00,
  0x00, 0x00, 0x00, 0x00, 0x03, 0x00, 0x00, 0x00, 0x02, 0x00, 0x00, 0x00,
  0x01, 0x00, 0x00, 0x00, 0x07, 0x00, 0x00, 0x00, 0x01, 0x00, 0x00, 0x00,
  0x00, 0x00, 0x00, 0x00, 0x08, 0x00, 0x00, 0x00, 0xd0, 0x02, 0x00, 0x00,
  0x6c, 0x02, 0x00, 0x00, 0x00, 0x02, 0x00, 0x00, 0xb8, 0x01, 0x00, 0x00,
  0x60, 0x01, 0x00, 0x00, 0xd8, 0x00, 0x00, 0x00, 0x60, 0x00, 0x00, 0x00,
  0x04, 0x00, 0x00, 0x00, 0x66, 0xfd, 0xff, 0xff, 0x00, 0x00, 0x00, 0x01,
  0x14, 0x00, 0x00, 0x00, 0x1c, 0x00, 0x00, 0x00, 0x1c, 0x00, 0x00, 0x00,
  0x08, 0x00, 0x00, 0x00, 0x34, 0x00, 0x00, 0x00, 0x02, 0x00, 0x00, 0x00,
  0xff, 0xff, 0xff, 0xff, 0x04, 0x00, 0x00, 0x00, 0x50, 0xfd, 0xff, 0xff,
  0x19, 0x00, 0x00, 0x00, 0x53, 0x74, 0x61, 0x74, 0x65, 0x66, 0x75, 0x6c,
  0x50, 0x61, 0x72, 0x74, 0x69, 0x74, 0x69, 0x6f, 0x6e, 0x65, 0x64, 0x43,
  0x61, 0x6c, 0x6c, 0x3a, 0x30, 0x00, 0x00, 0x00, 0x02, 0x00, 0x00, 0x00,
  0x01, 0x00, 0x00, 0x00, 0x04, 0x00, 0x00, 0x00, 0xbe, 0xfd, 0xff, 0xff,
  0x00, 0x00, 0x00, 0x01, 0x14, 0x00, 0x00, 0x00, 0x1c, 0x00, 0x00, 0x00,
  0x1c, 0x00, 0x00, 0x00, 0x07, 0x00, 0x00, 0x00, 0x50, 0x00, 0x00, 0x00,
  0x02, 0x00, 0x00, 0x00, 0xff, 0xff, 0xff, 0xff, 0x04, 0x00, 0x00, 0x00,
  0xa8, 0xfd, 0xff, 0xff, 0x34, 0x00, 0x00, 0x00, 0x73, 0x65, 0x71, 0x75,
  0x65, 0x6e, 0x74, 0x69, 0x61, 0x6c, 0x2f, 0x64, 0x65, 0x6e, 0x73, 0x65,
  0x5f, 0x31, 0x2f, 0x4d, 0x61, 0x74, 0x4d, 0x75, 0x6c, 0x3b, 0x73, 0x65,
  0x71, 0x75, 0x65, 0x6e, 0x74, 0x69, 0x61, 0x6c, 0x2f, 0x64, 0x65, 0x6e,
  0x73, 0x65, 0x5f, 0x31, 0x2f, 0x42, 0x69, 0x61, 0x73, 0x41, 0x64, 0x64,
  0x00, 0x00, 0x00, 0x00, 0x02, 0x00, 0x00, 0x00, 0x01, 0x00, 0x00, 0x00,
  0x04, 0x00, 0x00, 0x00, 0x32, 0xfe, 0xff, 0xff, 0x00, 0x00, 0x00, 0x01,
  0x14, 0x00, 0x00, 0x00, 0x1c, 0x00, 0x00, 0x00, 0x1c, 0x00, 0x00, 0x00,
  0x06, 0x00, 0x00, 0x00, 0x60, 0x00, 0x00, 0x00, 0x02, 0x00, 0x00, 0x00,
  0xff, 0xff, 0xff, 0xff, 0x40, 0x00, 0x00, 0x00, 0x1c, 0xfe, 0xff, 0xff,
  0x46, 0x00, 0x00, 0x00, 0x73, 0x65, 0x71, 0x75, 0x65, 0x6e, 0x74, 0x69,
  0x61, 0x6c, 0x2f, 0x64, 0x65, 0x6e, 0x73, 0x65, 0x2f, 0x4d, 0x61, 0x74,
  0x4d, 0x75, 0x6c, 0x3b, 0x73, 0x65, 0x71, 0x75, 0x65, 0x6e, 0x74, 0x69,
  0x61, 0x6c, 0x2f, 0x64, 0x65, 0x6e, 0x73, 0x65, 0x2f, 0x52, 0x65, 0x6c,
  0x75, 0x3b, 0x73, 0x65, 0x71, 0x75, 0x65, 0x6e, 0x74, 0x69, 0x61, 0x6c,
  0x2f, 0x64, 0x65, 0x6e, 0x73, 0x65, 0x2f, 0x42, 0x69, 0x61, 0x73, 0x41,
  0x64, 0x64, 0x00, 0x00, 0x02, 0x00, 0x00, 0x00, 0x01, 0x00, 0x00, 0x00,
  0x40, 0x00, 0x00, 0x00, 0x16, 0xff, 0xff, 0xff, 0x00, 0x00, 0x00, 0x01,
  0x10, 0x00, 0x00, 0x00, 0x10, 0x00, 0x00, 0x00, 0x05, 0x00, 0x00, 0x00,
  0x38, 0x00, 0x00, 0x00, 0x90, 0xfe, 0xff, 0xff, 0x29, 0x00, 0x00, 0x00,
  0x73, 0x65, 0x71, 0x75, 0x65, 0x6e, 0x74, 0x69, 0x61, 0x6c, 0x2f, 0x64,
  0x65, 0x6e, 0x73, 0x65, 0x5f, 0x31, 0x2f, 0x42, 0x69, 0x61, 0x73, 0x41,
  0x64, 0x64, 0x2f, 0x52, 0x65, 0x61, 0x64, 0x56, 0x61, 0x72, 0x69, 0x61,
  0x62, 0x6c, 0x65, 0x4f, 0x70, 0x00, 0x00, 0x00, 0x01, 0x00, 0x00, 0x00,
  0x04, 0x00, 0x00, 0x00, 0x6a, 0xff, 0xff, 0xff, 0x00, 0x00, 0x00, 0x01,
  0x10, 0x00, 0x00, 0x00, 0x10, 0x00, 0x00, 0x00, 0x04, 0x00, 0x00, 0x00,
  0x24, 0x00, 0x00, 0x00, 0xe4, 0xfe, 0xff, 0xff, 0x17, 0x00, 0x00, 0x00,
  0x73, 0x65, 0x71, 0x75, 0x65, 0x6e, 0x74, 0x69, 0x61, 0x6c, 0x2f, 0x64,
  0x65, 0x6e, 0x73, 0x65, 0x2f, 0x4d, 0x61, 0x74, 0x4d, 0x75, 0x6c, 0x00,
  0x02, 0x00, 0x00, 0x00, 0x40, 0x00, 0x00, 0x00, 0x0f, 0x00, 0x00, 0x00,
  0xae, 0xff, 0xff, 0xff, 0x00, 0x00, 0x00, 0x01, 0x10, 0x00, 0x00, 0x00,
  0x10, 0x00, 0x00, 0x00, 0x03, 0x00, 0x00, 0x00, 0x34, 0x00, 0x00, 0x00,
  0x28, 0xff, 0xff, 0xff, 0x27, 0x00, 0x00, 0x00, 0x73, 0x65, 0x71, 0x75,
  0x65, 0x6e, 0x74, 0x69, 0x61, 0x6c, 0x2f, 0x64, 0x65, 0x6e, 0x73, 0x65,
  0x2f, 0x42, 0x69, 0x61, 0x73, 0x41, 0x64, 0x64, 0x2f, 0x52, 0x65, 0x61,
  0x64, 0x56, 0x61, 0x72, 0x69, 0x61, 0x62, 0x6c, 0x65, 0x4f, 0x70, 0x00,
  0x01, 0x00, 0x00, 0x00, 0x40, 0x00, 0x00, 0x00, 0x00, 0x00, 0x16, 0x00,
  0x18, 0x00, 0x14, 0x00, 0x00, 0x00, 0x10, 0x00, 0x0c, 0x00, 0x08, 0x00,
  0x00, 0x00, 0x00, 0x00, 0x00, 0x00, 0x07, 0x00, 0x16, 0x00, 0x00, 0x00,
  0x00, 0x00, 0x00, 0x01, 0x10, 0x00, 0x00, 0x00, 0x10, 0x00, 0x00, 0x00,
  0x02, 0x00, 0x00, 0x00, 0x28, 0x00, 0x00, 0x00, 0x90, 0xff, 0xff, 0xff,
  0x19, 0x00, 0x00, 0x00, 0x73, 0x65, 0x71, 0x75, 0x65, 0x6e, 0x74, 0x69,
  0x61, 0x6c, 0x2f, 0x64, 0x65, 0x6e, 0x73, 0x65, 0x5f, 0x31, 0x2f, 0x4d,
  0x61, 0x74, 0x4d, 0x75, 0x6c, 0x00, 0x00, 0x00, 0x02, 0x00, 0x00, 0x00,
  0x04, 0x00, 0x00, 0x00, 0x40, 0x00, 0x00, 0x00, 0x00, 0x00, 0x16, 0x00,
  0x1c, 0x00, 0x18, 0x00, 0x00, 0x00, 0x14, 0x00, 0x10, 0x00, 0x0c, 0x00,
  0x00, 0x00, 0x00, 0x00, 0x08, 0x00, 0x07, 0x00, 0x16, 0x00, 0x00, 0x00,
  0x00, 0x00, 0x00, 0x01, 0x14, 0x00, 0x00, 0x00, 0x20, 0x00, 0x00, 0x00,
  0x20, 0x00, 0x00, 0x00, 0x01, 0x00, 0x00, 0x00, 0x38, 0x00, 0x00, 0x00,
  0x02, 0x00, 0x00, 0x00, 0xff, 0xff, 0xff, 0xff, 0x0f, 0x00, 0x00, 0x00,
  0x04, 0x00, 0x04, 0x00, 0x04, 0x00, 0x00, 0x00, 0x19, 0x00, 0x00, 0x00,
  0x73, 0x65, 0x72, 0x76, 0x69, 0x6e, 0x67, 0x5f, 0x64, 0x65, 0x66, 0x61,
  0x75, 0x6c, 0x74, 0x5f, 0x69, 0x6e, 0x70, 0x75, 0x74, 0x5f, 0x31, 0x3a,
  0x30, 0x00, 0x00, 0x00, 0x02, 0x00, 0x00, 0x00, 0x01, 0x00, 0x00, 0x00,
  0x0f, 0x00, 0x00, 0x00, 0x02, 0x00, 0x00, 0x00, 0x20, 0x00, 0x00, 0x00,
  0x04, 0x00, 0x00, 0x00, 0xf4, 0xff, 0xff, 0xff, 0x19, 0x00, 0x00, 0x00,
  0x00, 0x00, 0x00, 0x19, 0x0c, 0x00, 0x0c, 0x00, 0x0b, 0x00, 0x00, 0x00,
  0x00, 0x00, 0x04, 0x00, 0x0c, 0x00, 0x00, 0x00, 0x09, 0x00, 0x00, 0x00,
  0x00, 0x00, 0x00, 0x09
};
unsigned int converted_model_tflite_len = 6820;
