unsigned char converted_model_tflite[] = {
  0x1c, 0x00, 0x00, 0x00, 0x54, 0x46, 0x4c, 0x33, 0x14, 0x00, 0x20, 0x00,
  0x1c, 0x00, 0x18, 0x00, 0x14, 0x00, 0x10, 0x00, 0x0c, 0x00, 0x00, 0x00,
  0x08, 0x00, 0x04, 0x00, 0x14, 0x00, 0x00, 0x00, 0x1c, 0x00, 0x00, 0x00,
  0x8c, 0x00, 0x00, 0x00, 0xe4, 0x00, 0x00, 0x00, 0xe4, 0x0b, 0x00, 0x00,
  0xf4, 0x0b, 0x00, 0x00, 0x58, 0x10, 0x00, 0x00, 0x03, 0x00, 0x00, 0x00,
  0x01, 0x00, 0x00, 0x00, 0x10, 0x00, 0x00, 0x00, 0x00, 0x00, 0x0a, 0x00,
  0x10, 0x00, 0x0c, 0x00, 0x08, 0x00, 0x04, 0x00, 0x0a, 0x00, 0x00, 0x00,
  0x0c, 0x00, 0x00, 0x00, 0x1c, 0x00, 0x00, 0x00, 0x38, 0x00, 0x00, 0x00,
  0x0f, 0x00, 0x00, 0x00, 0x73, 0x65, 0x72, 0x76, 0x69, 0x6e, 0x67, 0x5f,
  0x64, 0x65, 0x66, 0x61, 0x75, 0x6c, 0x74, 0x00, 0x01, 0x00, 0x00, 0x00,
  0x04, 0x00, 0x00, 0x00, 0x9c, 0xff, 0xff, 0xff, 0x07, 0x00, 0x00, 0x00,
  0x04, 0x00, 0x00, 0x00, 0x07, 0x00, 0x00, 0x00, 0x64, 0x65, 0x6e, 0x73,
  0x65, 0x5f, 0x33, 0x00, 0x01, 0x00, 0x00, 0x00, 0x04, 0x00, 0x00, 0x00,
  0x02, 0xf4, 0xff, 0xff, 0x04, 0x00, 0x00, 0x00, 0x07, 0x00, 0x00, 0x00,
  0x69, 0x6e, 0x70, 0x75, 0x74, 0x5f, 0x32, 0x00, 0x02, 0x00, 0x00, 0x00,
  0x34, 0x00, 0x00, 0x00, 0x04, 0x00, 0x00, 0x00, 0xdc, 0xff, 0xff, 0xff,
  0x0a, 0x00, 0x00, 0x00, 0x04, 0x00, 0x00, 0x00, 0x13, 0x00, 0x00, 0x00,
  0x43, 0x4f, 0x4e, 0x56, 0x45, 0x52, 0x53, 0x49, 0x4f, 0x4e, 0x5f, 0x4d,
  0x45, 0x54, 0x41, 0x44, 0x41, 0x54, 0x41, 0x00, 0x08, 0x00, 0x0c, 0x00,
  0x08, 0x00, 0x04, 0x00, 0x08, 0x00, 0x00, 0x00, 0x09, 0x00, 0x00, 0x00,
  0x04, 0x00, 0x00, 0x00, 0x13, 0x00, 0x00, 0x00, 0x6d, 0x69, 0x6e, 0x5f,
  0x72, 0x75, 0x6e, 0x74, 0x69, 0x6d, 0x65, 0x5f, 0x76, 0x65, 0x72, 0x73,
  0x69, 0x6f, 0x6e, 0x00, 0x0b, 0x00, 0x00, 0x00, 0xfc, 0x0a, 0x00, 0x00,
  0xf4, 0x0a, 0x00, 0x00, 0xe4, 0x08, 0x00, 0x00, 0x54, 0x08, 0x00, 0x00,
  0xc4, 0x00, 0x00, 0x00, 0xa4, 0x00, 0x00, 0x00, 0x9c, 0x00, 0x00, 0x00,
  0x94, 0x00, 0x00, 0x00, 0x8c, 0x00, 0x00, 0x00, 0x6c, 0x00, 0x00, 0x00,
  0x04, 0x00, 0x00, 0x00, 0xa2, 0xf4, 0xff, 0xff, 0x04, 0x00, 0x00, 0x00,
  0x58, 0x00, 0x00, 0x00, 0x0c, 0x00, 0x00, 0x00, 0x08, 0x00, 0x0e, 0x00,
  0x08, 0x00, 0x04, 0x00, 0x08, 0x00, 0x00, 0x00, 0x10, 0x00, 0x00, 0x00,
  0x28, 0x00, 0x00, 0x00, 0x00, 0x00, 0x06, 0x00, 0x08, 0x00, 0x04, 0x00,
  0x06, 0x00, 0x00, 0x00, 0x04, 0x00, 0x00, 0x00, 0x01, 0x00, 0x00, 0x00,
  0xeb, 0x03, 0x00, 0x00, 0x00, 0x00, 0x0a, 0x00, 0x10, 0x00, 0x0c, 0x00,
  0x08, 0x00, 0x04, 0x00, 0x0a, 0x00, 0x00, 0x00, 0x02, 0x00, 0x00, 0x00,
  0x02, 0x00, 0x00, 0x00, 0x04, 0x00, 0x00, 0x00, 0x06, 0x00, 0x00, 0x00,
  0x32, 0x2e, 0x31, 0x30, 0x2e, 0x30, 0x00, 0x00, 0x06, 0xf5, 0xff, 0xff,
  0x04, 0x00, 0x00, 0x00, 0x10, 0x00, 0x00, 0x00, 0x31, 0x2e, 0x35, 0x2e,
  0x30, 0x00, 0x00, 0x00, 0x00, 0x00, 0x00, 0x00, 0x00, 0x00, 0x00, 0x00,
  0x64, 0xf1, 0xff, 0xff, 0x68, 0xf1, 0xff, 0xff, 0x6c, 0xf1, 0xff, 0xff,
  0x2e, 0xf5, 0xff, 0xff, 0x04, 0x00, 0x00, 0x00, 0x10, 0x00, 0x00, 0x00,
  0x22, 0x00, 0x83, 0xbd, 0xd9, 0xd3, 0x88, 0xbc, 0xdc, 0xaa, 0xd3, 0xbd,
  0xaf, 0xcd, 0x05, 0x3e, 0x4a, 0xf5, 0xff, 0xff, 0x04, 0x00, 0x00, 0x00,
  0x80, 0x07, 0x00, 0x00, 0xc4, 0x2e, 0x52, 0xbe, 0x05, 0xd8, 0xa0, 0x3d,
  0xf5, 0x1b, 0x72, 0x3e, 0x17, 0xe4, 0x07, 0x3e, 0xb2, 0x0b, 0x0f, 0xbe,
  0x10, 0x8b, 0x7b, 0xbd, 0x27, 0x68, 0xae, 0x3e, 0x3a, 0x1d, 0x7f, 0x3e,
  0xd6, 0x66, 0x39, 0x3e, 0xb0, 0x02, 0x1c, 0x3e, 0x1b, 0x46, 0xb1, 0x3e,
  0x86, 0x82, 0x0d, 0x3e, 0xc6, 0xfe, 0x7b, 0xbd, 0x02, 0xd9, 0x94, 0xbe,
  0x25, 0x14, 0x2d, 0x3e, 0x51, 0xd0, 0x8f, 0xbe, 0xa1, 0x74, 0x4e, 0x3c,
  0xcd, 0x52, 0x09, 0xbe, 0xd9, 0x72, 0x01, 0x3d, 0x40, 0x36, 0x97, 0x3c,
  0xb5, 0xeb, 0xbb, 0xbd, 0x1f, 0x61, 0x5c, 0xbe, 0x11, 0xcc, 0x54, 0x3e,
  0x1f, 0xbf, 0xc9, 0xbc, 0x87, 0xb5, 0x67, 0xbd, 0xbc, 0x34, 0x68, 0xbe,
  0x45, 0x21, 0x90, 0xbe, 0xf9, 0x9b, 0x8d, 0x3e, 0x72, 0xae, 0x81, 0xbe,
  0x91, 0xa9, 0x39, 0xbe, 0x78, 0x80, 0xac, 0xbc, 0x9a, 0x1e, 0x09, 0xbb,
  0x35, 0x43, 0x18, 0x3e, 0xa6, 0x73, 0xa2, 0xbe, 0x39, 0xf7, 0x9a, 0x3e,
  0x1a, 0x56, 0xb5, 0xbe, 0x5a, 0x94, 0x92, 0xbd, 0xb7, 0xf0, 0x8b, 0x3e,
  0x78, 0xe1, 0xa2, 0x3e, 0x52, 0x97, 0x5c, 0xbe, 0x15, 0x4e, 0x8f, 0xbe,
  0xe1, 0xa4, 0x80, 0x3e, 0x33, 0x8d, 0xb2, 0x3e, 0xc7, 0x48, 0x7d, 0x3e,
  0x31, 0x56, 0x04, 0xbd, 0xe3, 0x68, 0xa3, 0xbe, 0x2e, 0x42, 0xec, 0xba,
  0x0a, 0x5a, 0x3e, 0x3e, 0xad, 0x3a, 0x55, 0x3e, 0x7a, 0x09, 0x63, 0x3e,
  0x5a, 0xf9, 0xb6, 0xbe, 0x1b, 0xf4, 0x33, 0xbd, 0x6c, 0x86, 0x46, 0x3e,
  0xc2, 0x19, 0x5f, 0xbe, 0x1e, 0x81, 0x94, 0xbe, 0x92, 0xc1, 0xbd, 0x3d,
  0x7a, 0x38, 0x6f, 0x3e, 0xef, 0x84, 0xc0, 0x3e, 0xaa, 0x8b, 0x99, 0xbe,
  0xb3, 0x34, 0x7d, 0x3e, 0x5d, 0xe5, 0x17, 0xbe, 0x44, 0x5c, 0x32, 0xbe,
  0xb4, 0xe2, 0x44, 0xbe, 0x32, 0xee, 0x1c, 0xbe, 0xd1, 0xc9, 0x7a, 0xbd,
  0xe7, 0x52, 0x92, 0x3e, 0xa5, 0x3b, 0x69, 0x3e, 0x84, 0xd3, 0x56, 0x3e,
  0x2f, 0xf2, 0x6f, 0x3e, 0x91, 0xca, 0x30, 0x3e, 0x0c, 0xbc, 0x23, 0xbe,
  0x3f, 0xb1, 0xea, 0x3d, 0xc9, 0x15, 0x7f, 0xbe, 0x60, 0x08, 0xfc, 0x3d,
  0xb1, 0xce, 0xaf, 0xbe, 0xcf, 0xd9, 0xdf, 0x3d, 0x7f, 0x61, 0xae, 0xbd,
  0xf6, 0x56, 0x04, 0x3b, 0x82, 0x9e, 0x04, 0xbe, 0xc5, 0x02, 0x67, 0xbe,
  0xe9, 0xda, 0xd0, 0xbd, 0xa8, 0x39, 0xa8, 0xbe, 0x13, 0xeb, 0xae, 0x3e,
  0xf5, 0x2c, 0x37, 0x3c, 0x4d, 0x62, 0x92, 0xbe, 0xdf, 0xb1, 0x4e, 0x3e,
  0x37, 0x0c, 0x11, 0x3e, 0x3a, 0xcc, 0x6e, 0x3e, 0x98, 0x2b, 0x33, 0xbe,
  0x2f, 0xdc, 0xdc, 0x3d, 0x2c, 0x84, 0x86, 0x3e, 0x3d, 0x3e, 0x1d, 0x3e,
  0x6e, 0x3c, 0x89, 0x3e, 0xd8, 0x12, 0x8e, 0x3e, 0x6e, 0x69, 0x42, 0xbe,
  0x85, 0x72, 0x88, 0x3e, 0xd3, 0x96, 0x57, 0xbe, 0x19, 0xeb, 0x27, 0x3e,
  0xd5, 0xdf, 0xa6, 0xbc, 0xf7, 0x9a, 0x51, 0xbd, 0x21, 0x39, 0xb1, 0xbe,
  0x1b, 0x5f, 0xb1, 0xbe, 0x42, 0x1a, 0x2c, 0xbd, 0x8a, 0xc8, 0x57, 0xbe,
  0xa8, 0xf8, 0xac, 0x3d, 0x6e, 0x2d, 0x17, 0x3d, 0xcb, 0x88, 0x10, 0xbe,
  0xc3, 0x9d, 0x80, 0xbe, 0x5f, 0x79, 0x0e, 0x3e, 0xec, 0xf8, 0x90, 0x3d,
  0x80, 0x52, 0xcc, 0xbd, 0x65, 0xe2, 0xd9, 0x3d, 0xa2, 0x8c, 0xa9, 0x3e,
  0xd7, 0xc2, 0x2d, 0x3d, 0xc8, 0x86, 0x17, 0xbe, 0xf5, 0x65, 0x4d, 0xbc,
  0x84, 0xbf, 0x70, 0xbe, 0x1f, 0xca, 0xef, 0xbd, 0x81, 0x7a, 0xa5, 0xbe,
  0x64, 0x0b, 0x3b, 0x3e, 0x4a, 0xdc, 0xd8, 0x3c, 0x9b, 0xd0, 0x7a, 0x3e,
  0x88, 0x7f, 0x4b, 0x3e, 0x56, 0xc6, 0x0f, 0xbd, 0xcc, 0x8d, 0x6b, 0xbe,
  0x5a, 0xaa, 0xa4, 0x3e, 0x9f, 0x53, 0x1e, 0xbe, 0xf0, 0x4a, 0xd9, 0x3d,
  0xf6, 0x5a, 0x86, 0xbe, 0x59, 0x1b, 0x73, 0x3d, 0x74, 0x29, 0xae, 0x3d,
  0x26, 0x7e, 0x3d, 0xbe, 0x1f, 0x0c, 0x38, 0xbe, 0x30, 0xd1, 0xa7, 0x3e,
  0xc6, 0xd8, 0xb7, 0x3c, 0xb3, 0xc0, 0x9d, 0x3e, 0x52, 0xfc, 0xa2, 0xbc,
  0x28, 0xec, 0xf2, 0xbd, 0x3b, 0x7d, 0xa3, 0x3e, 0x1e, 0x97, 0x5d, 0xbe,
  0x6d, 0x64, 0x97, 0xbe, 0x7e, 0x3e, 0xa9, 0xbe, 0x81, 0xd6, 0x3b, 0x3e,
  0x3d, 0x6f, 0x65, 0xbc, 0x74, 0x3d, 0x3b, 0x3e, 0xd6, 0x00, 0x86, 0x3e,
  0x70, 0x62, 0xa9, 0x3c, 0xd8, 0x24, 0x93, 0x3e, 0x17, 0x49, 0x90, 0x3d,
  0xd6, 0x8c, 0x9d, 0xbe, 0xc1, 0x06, 0x91, 0x3e, 0x3d, 0xde, 0x79, 0x3e,
  0xdd, 0x59, 0xef, 0x3a, 0x72, 0xb4, 0x54, 0x3c, 0xcd, 0x48, 0x80, 0xbc,
  0x13, 0xc3, 0x75, 0x3e, 0xd7, 0x55, 0xda, 0xbd, 0x0d, 0x67, 0x88, 0x3e,
  0x36, 0xf2, 0x77, 0xbd, 0x23, 0x0e, 0x58, 0x3e, 0xaf, 0x6e, 0x7e, 0x3e,
  0x64, 0x64, 0xe1, 0xbd, 0xcc, 0x4e, 0x19, 0xbe, 0x93, 0x11, 0xa8, 0x3e,
  0x13, 0x0b, 0x2a, 0x3d, 0x53, 0x0c, 0xd3, 0xbd, 0x8d, 0x8b, 0x6b, 0x3d,
  0x20, 0x20, 0xfc, 0xbd, 0xf7, 0x61, 0x9e, 0x3e, 0xea, 0xc4, 0xaf, 0xbe,
  0x83, 0x36, 0xa3, 0x3d, 0x1d, 0xf7, 0x01, 0xbe, 0x52, 0x6d, 0x53, 0x3e,
  0x49, 0x42, 0x13, 0xbe, 0x1d, 0x97, 0x9a, 0xbe, 0x61, 0x20, 0xe8, 0xbd,
  0x58, 0xb8, 0x89, 0x3e, 0x46, 0xa7, 0x25, 0xbe, 0xc9, 0x6d, 0x5f, 0x3e,
  0x8f, 0x34, 0xa4, 0xbc, 0xef, 0xba, 0xad, 0xbe, 0xc2, 0xde, 0x65, 0x3e,
  0xa9, 0xe1, 0x88, 0xbc, 0x61, 0xec, 0x83, 0x3e, 0x47, 0x18, 0x8f, 0x3e,
  0x46, 0x28, 0xd4, 0xbd, 0x1d, 0x98, 0x95, 0x3e, 0x9e, 0xd7, 0x8f, 0xbe,
  0xb3, 0x0f, 0x80, 0x3d, 0x94, 0x17, 0x8d, 0xbe, 0xfe, 0xab, 0x32, 0x3c,
  0xc1, 0x3f, 0x87, 0x3e, 0x79, 0x09, 0x31, 0xbc, 0x5e, 0x65, 0xb4, 0xbd,
  0x70, 0xd7, 0x8d, 0x3e, 0xfc, 0x21, 0xa6, 0x3e, 0x11, 0xca, 0x17, 0xbe,
  0x9d, 0xdd, 0x69, 0xbe, 0xce, 0xf5, 0xb3, 0x3e, 0xbb, 0x17, 0x90, 0xbe,
  0x65, 0xd8, 0xb3, 0xbe, 0x58, 0x2b, 0x2f, 0x3d, 0x4c, 0xa9, 0x03, 0x3e,
  0xfc, 0x3a, 0xc7, 0xbd, 0x70, 0xce, 0x78, 0x3e, 0x02, 0x46, 0xa3, 0x3e,
  0xe8, 0xef, 0x0d, 0xbd, 0x2e, 0x5f, 0x91, 0xbe, 0x88, 0x5b, 0xdb, 0xbd,
  0x0d, 0xff, 0x48, 0xbe, 0x5d, 0x23, 0x3e, 0x3e, 0xae, 0xc6, 0x37, 0xbe,
  0x92, 0x16, 0xd9, 0x3c, 0x30, 0x30, 0xce, 0x3c, 0xcb, 0xc5, 0x14, 0xbe,
  0xed, 0x6b, 0xed, 0x3c, 0xf8, 0x67, 0x35, 0x3d, 0xa4, 0x64, 0x5f, 0x3e,
  0x91, 0x5b, 0x38, 0x3e, 0x9c, 0x76, 0xaa, 0x3d, 0x73, 0x87, 0xfb, 0xbd,
  0xd5, 0xac, 0x7f, 0x3e, 0xa7, 0x06, 0xbe, 0x3e, 0xe2, 0xf9, 0x17, 0xbe,
  0x1d, 0x12, 0xa9, 0xbe, 0x25, 0xb0, 0xef, 0xbd, 0x89, 0x5b, 0x3c, 0x3e,
  0xf9, 0x6d, 0x50, 0x3d, 0x39, 0x34, 0x8e, 0x3e, 0x0c, 0x9d, 0x02, 0x3e,
  0xa8, 0x8c, 0x04, 0xbe, 0xae, 0xd4, 0x94, 0xbe, 0x3f, 0x04, 0xc2, 0x3e,
  0x92, 0xf1, 0x1d, 0xbe, 0x12, 0x85, 0xa7, 0x3e, 0xf0, 0xb5, 0x64, 0x3e,
  0xfa, 0x84, 0x92, 0x3e, 0x54, 0x58, 0xba, 0xbe, 0x3c, 0xa1, 0xe6, 0x3d,
  0x36, 0xed, 0x87, 0xbe, 0x29, 0x44, 0xaa, 0xbd, 0xd3, 0x43, 0x63, 0x3e,
  0xdc, 0xdb, 0x0b, 0x3e, 0x9f, 0xa3, 0x3e, 0xbe, 0xe8, 0x94, 0x90, 0xbc,
  0x4b, 0xff, 0x81, 0x3e, 0x9f, 0xee, 0xc3, 0xbc, 0x44, 0xad, 0x8f, 0xbe,
  0x07, 0x09, 0x44, 0xbd, 0x9b, 0x58, 0xa0, 0xbd, 0xa3, 0x6f, 0x02, 0xbe,
  0xf5, 0x89, 0x3f, 0xbe, 0x57, 0x7c, 0x92, 0x3e, 0xae, 0x90, 0xad, 0xbe,
  0xb8, 0x2b, 0x92, 0xbd, 0x02, 0x4e, 0x91, 0xbe, 0xbc, 0xde, 0xc3, 0xbd,
  0xc4, 0x37, 0xbc, 0x3e, 0xfa, 0x0e, 0x95, 0x3e, 0xc0, 0x15, 0x1e, 0xbe,
  0x72, 0xa3, 0x78, 0x3e, 0xf7, 0xd0, 0x2b, 0x3e, 0x28, 0x0d, 0xdb, 0xbd,
  0x7b, 0x19, 0x88, 0x3e, 0xfd, 0x8b, 0x58, 0x3c, 0x85, 0xbe, 0x93, 0x3d,
  0x45, 0x46, 0xfd, 0xbd, 0x4e, 0xdd, 0x3f, 0x3e, 0x73, 0xd8, 0x1c, 0xbe,
  0x32, 0xb1, 0xaf, 0xbc, 0x5c, 0x90, 0x95, 0xbe, 0xb0, 0x3c, 0xbb, 0x3e,
  0x0b, 0x3e, 0x4f, 0xbe, 0x4c, 0x4f, 0x14, 0x3e, 0xb9, 0x36, 0x9f, 0xbd,
  0x05, 0x21, 0xcc, 0xbd, 0x3a, 0x94, 0xac, 0xbe, 0xf7, 0x71, 0x9d, 0xbd,
  0xc0, 0x44, 0x29, 0xbe, 0xb8, 0x48, 0x0b, 0xbe, 0xc4, 0x5b, 0x79, 0xbd,
  0xa2, 0x6b, 0x71, 0x3e, 0xa1, 0xf8, 0x2c, 0x3e, 0xa2, 0x14, 0x96, 0x3e,
  0xfa, 0x12, 0x53, 0x3e, 0x09, 0xb2, 0xb4, 0x3e, 0x1d, 0x02, 0xc1, 0x3e,
  0xc9, 0xae, 0x84, 0xbd, 0xb3, 0x47, 0x94, 0x3d, 0x07, 0xdd, 0x79, 0xbe,
  0x11, 0xc4, 0x90, 0xbe, 0x64, 0x8f, 0x69, 0xbe, 0x81, 0xee, 0x79, 0x3e,
  0x58, 0xfa, 0xcd, 0x3d, 0x9f, 0xc9, 0x3f, 0x3e, 0x01, 0x67, 0xb5, 0xbe,
  0x85, 0x20, 0x86, 0x3e, 0x4c, 0x7e, 0xdd, 0xbd, 0x4c, 0xf8, 0x2d, 0x3e,
  0xd8, 0xd1, 0x5f, 0x3e, 0x69, 0x8e, 0xb9, 0xbd, 0x69, 0x3a, 0x20, 0xbd,
  0xc9, 0x46, 0x61, 0x3c, 0x3a, 0x59, 0xdf, 0xbd, 0x21, 0x0a, 0xc6, 0xbd,
  0xf7, 0x1c, 0x99, 0x3e, 0x41, 0xcc, 0x83, 0xbe, 0x5f, 0x65, 0x20, 0x3e,
  0x71, 0x54, 0xf6, 0x3d, 0x68, 0x9c, 0x99, 0x3e, 0x4e, 0xed, 0xad, 0x3d,
  0x58, 0xdb, 0xa2, 0xbc, 0x35, 0xe6, 0xa0, 0xbe, 0x2b, 0x21, 0x9e, 0xbe,
  0x68, 0xeb, 0x45, 0x3e, 0xd8, 0x68, 0x33, 0xbe, 0x2a, 0x25, 0x23, 0xbe,
  0xd4, 0x69, 0xa4, 0x3e, 0x94, 0x9d, 0x0e, 0x3d, 0x3a, 0xc9, 0x22, 0x3e,
  0xf2, 0x38, 0x12, 0xbe, 0x08, 0x57, 0x9c, 0x3e, 0xca, 0xbd, 0x6b, 0xbe,
  0x58, 0x06, 0x8b, 0xbd, 0xe5, 0x76, 0x0d, 0x3e, 0x65, 0x24, 0xd8, 0x3b,
  0xdb, 0xf8, 0x38, 0xbe, 0xbc, 0x1c, 0x1e, 0xbd, 0x5c, 0x4c, 0x25, 0xbe,
  0x02, 0x4b, 0x9a, 0xbe, 0x6f, 0xd9, 0x82, 0xbe, 0xb3, 0x23, 0x48, 0x3e,
  0x0e, 0x33, 0x97, 0xbe, 0x9d, 0xb8, 0x80, 0x3e, 0x67, 0x66, 0x7d, 0x3d,
  0x42, 0x10, 0x18, 0xbe, 0x0f, 0xe1, 0x29, 0xbe, 0x48, 0x35, 0xd2, 0x3d,
  0xbb, 0x54, 0xc8, 0xbb, 0x9f, 0x49, 0xb2, 0x3e, 0x66, 0xf3, 0xa8, 0x3e,
  0x1f, 0x90, 0x82, 0x3d, 0x15, 0xea, 0xba, 0x3e, 0x92, 0xad, 0x90, 0xbe,
  0x61, 0x72, 0xee, 0xbd, 0x66, 0x9f, 0x8c, 0x3e, 0x1d, 0xdf, 0x52, 0xbd,
  0xbb, 0xde, 0x00, 0x3d, 0x72, 0x4e, 0xb4, 0xbe, 0x73, 0x1d, 0x21, 0xbe,
  0x89, 0x44, 0x61, 0x3d, 0x0d, 0x9c, 0x87, 0xbe, 0x0c, 0x25, 0x15, 0x3b,
  0xb8, 0x9f, 0x05, 0xbe, 0x29, 0xcc, 0x05, 0x3d, 0x11, 0x80, 0x6b, 0xbd,
  0xe3, 0x35, 0x40, 0x3e, 0x14, 0xde, 0x8a, 0x3e, 0xb2, 0xbe, 0x6a, 0x3e,
  0x97, 0x36, 0xb8, 0xbe, 0x08, 0x73, 0x9c, 0xbe, 0x64, 0xff, 0x3c, 0xbe,
  0xae, 0xef, 0x4e, 0x3e, 0xcb, 0x39, 0x4b, 0x3e, 0xf4, 0xf0, 0xb0, 0x3d,
  0x5a, 0xcd, 0x60, 0xbe, 0x75, 0x33, 0xb0, 0xbe, 0x70, 0xb2, 0x04, 0xbe,
  0xbc, 0x66, 0xa7, 0x3d, 0x2b, 0xf0, 0x9e, 0xbe, 0x16, 0x90, 0xac, 0x3c,
  0xd7, 0xe0, 0x4c, 0xbe, 0x38, 0x59, 0xb6, 0xbe, 0xb0, 0xaf, 0x96, 0xbe,
  0xac, 0x52, 0x9b, 0x3e, 0x7a, 0x3a, 0x5e, 0xbe, 0xcc, 0xe5, 0x63, 0xbd,
  0x5c, 0xaa, 0xa6, 0xbe, 0xd3, 0x83, 0xbf, 0x3e, 0xd4, 0xb3, 0x8d, 0x3c,
  0x82, 0x8d, 0x00, 0x3e, 0xee, 0xdf, 0x00, 0x3e, 0xfb, 0xb9, 0x1c, 0xbd,
  0xda, 0xf1, 0xb8, 0x3e, 0x8d, 0x23, 0x88, 0xbe, 0x38, 0xc5, 0xba, 0x3e,
  0xb4, 0x97, 0xc0, 0x3e, 0x83, 0x88, 0x3d, 0x3e, 0x0d, 0xd7, 0x66, 0x3e,
  0x12, 0x2d, 0xbe, 0xbb, 0x57, 0x28, 0xd1, 0xbe, 0xed, 0x2b, 0xc9, 0xbe,
  0xbe, 0x68, 0x47, 0x3e, 0xad, 0xb4, 0xa1, 0x3b, 0x72, 0x7a, 0xa6, 0xbe,
  0x45, 0x17, 0x6e, 0xbe, 0x96, 0x1b, 0x00, 0xbe, 0x0c, 0x00, 0x65, 0x3e,
  0xf0, 0x2a, 0x60, 0xbe, 0x78, 0x69, 0xac, 0x3e, 0xcc, 0x86, 0x7f, 0xbe,
  0x91, 0x15, 0x84, 0xbe, 0xe2, 0x82, 0x89, 0xbe, 0xb7, 0x8e, 0x74, 0xbe,
  0xdd, 0x5c, 0x61, 0x3e, 0x1b, 0x51, 0xb5, 0xbb, 0x3d, 0xcc, 0xa0, 0xbe,
  0x4b, 0xc8, 0xd8, 0xbd, 0xba, 0xdc, 0x26, 0x3e, 0x93, 0x81, 0x88, 0x3e,
  0x3f, 0x52, 0xde, 0x3c, 0xc4, 0x0c, 0x8b, 0xbc, 0x33, 0xdc, 0x76, 0xbd,
  0x80, 0x7e, 0xdc, 0x3d, 0x35, 0x0a, 0xf3, 0xbd, 0xe6, 0xe9, 0x90, 0x3e,
  0x2e, 0xde, 0x99, 0xbe, 0x7d, 0xd7, 0x7e, 0xbd, 0x1c, 0x28, 0x23, 0x3d,
  0x03, 0x30, 0xfe, 0x3d, 0xa6, 0xfc, 0x05, 0x3e, 0x19, 0x4d, 0x8b, 0xbe,
  0xc8, 0x6d, 0x27, 0xbe, 0x09, 0xde, 0x3c, 0xbe, 0x91, 0x5d, 0x5c, 0x3c,
  0x17, 0x67, 0xe6, 0xbd, 0xdb, 0x96, 0x86, 0x3e, 0xd4, 0xb3, 0x6b, 0xbe,
  0xed, 0x48, 0x9c, 0xbe, 0xdd, 0x76, 0x5b, 0x3e, 0xa5, 0x1a, 0x52, 0xbd,
  0xa1, 0x93, 0x2a, 0x3e, 0x06, 0x9e, 0x78, 0x3e, 0xc2, 0xb5, 0x34, 0xbe,
  0xe1, 0x15, 0x8b, 0xbe, 0x55, 0xca, 0xaf, 0xbe, 0x04, 0xb8, 0x9e, 0x3e,
  0xf2, 0x06, 0xcb, 0xbc, 0xc9, 0x74, 0x87, 0xbe, 0x8c, 0x50, 0x31, 0x3e,
  0x9a, 0xd0, 0x2b, 0xbc, 0xe5, 0x3b, 0xac, 0x3e, 0xc0, 0xb2, 0xb3, 0x3e,
  0xf3, 0xf0, 0x80, 0x3e, 0x59, 0xac, 0x8c, 0x3e, 0x9f, 0xb4, 0x97, 0xbe,
  0xca, 0x6c, 0x93, 0xbe, 0x42, 0xc7, 0x9f, 0x3e, 0xe9, 0x35, 0x21, 0xbe,
  0x6a, 0xa2, 0x9f, 0xbe, 0x50, 0xa7, 0x27, 0x3c, 0x80, 0x77, 0x5f, 0xbe,
  0xe2, 0x06, 0x23, 0x3d, 0xa2, 0x78, 0xa3, 0xbe, 0x73, 0x64, 0x9e, 0xbe,
  0x70, 0x57, 0x85, 0xbe, 0x6e, 0x58, 0xf7, 0x3d, 0xaa, 0x44, 0xd0, 0xbc,
  0x48, 0x67, 0x34, 0xbe, 0x2b, 0x0f, 0x88, 0x3e, 0x35, 0xdd, 0x78, 0xbe,
  0xa0, 0x9e, 0x92, 0x3e, 0x04, 0x4a, 0xb5, 0x3e, 0x8d, 0x0e, 0xbe, 0x3e,
  0x69, 0xb0, 0x19, 0xbe, 0x17, 0x81, 0x1c, 0xbe, 0x3c, 0x97, 0xae, 0x3d,
  0xf8, 0x89, 0xae, 0x3d, 0xcb, 0x5b, 0x5a, 0xbe, 0x79, 0x88, 0x1c, 0x3e,
  0x1c, 0x9a, 0x97, 0x3e, 0xb9, 0x47, 0x06, 0xbd, 0x1b, 0xe3, 0x01, 0xbe,
  0x8c, 0x3f, 0x6c, 0xbe, 0x17, 0x0e, 0x58, 0x3d, 0x79, 0xb6, 0x61, 0x3e,
  0x56, 0xea, 0x0a, 0x3e, 0xb2, 0xad, 0x3f, 0xbe, 0xa8, 0x74, 0x49, 0x3e,
  0xba, 0x2a, 0x2a, 0x3e, 0xd6, 0xfc, 0xff, 0xff, 0x04, 0x00, 0x00, 0x00,
  0x80, 0x00, 0x00, 0x00, 0x11, 0x27, 0xdb, 0xbc, 0x5e, 0xd8, 0x72, 0xbd,
  0x71, 0x67, 0x3d, 0xbc, 0x11, 0x50, 0x1d, 0x3c, 0x9b, 0x99, 0x3d, 0xbd,
  0xc5, 0x7d, 0x40, 0xbd, 0xdb, 0xc2, 0xc7, 0xbc, 0xaa, 0xf2, 0x02, 0xbd,
  0x5f, 0xb2, 0xc6, 0xbc, 0xf1, 0x5c, 0x8e, 0xbc, 0xcf, 0x59, 0xba, 0xbb,
  0xbd, 0xe8, 0x00, 0xbc, 0x40, 0xee, 0xe8, 0xbb, 0x00, 0x00, 0x00, 0x00,
  0xaf, 0xaa, 0x45, 0xbc, 0xc4, 0xb4, 0xb8, 0xbc, 0xa8, 0x86, 0x2f, 0xbc,
  0x9d, 0xa8, 0xa8, 0xbc, 0x06, 0x97, 0x67, 0xbd, 0xd4, 0xc3, 0xc5, 0x3d,
  0xbe, 0x1d, 0x38, 0xbd, 0x49, 0x13, 0x81, 0xbc, 0xa0, 0x92, 0x3c, 0xbc,
  0x2f, 0x3a, 0x45, 0x3e, 0xeb, 0xea, 0x55, 0xbd, 0x07, 0xec, 0x22, 0xbc,
  0xe8, 0x84, 0x0b, 0x3e, 0xd1, 0x51, 0x1f, 0x3e, 0x3c, 0xc1, 0xf6, 0xbc,
  0x77, 0x4e, 0x4a, 0x3e, 0x65, 0xb6, 0x09, 0x3e, 0x47, 0x58, 0x4c, 0xbb,
  0x62, 0xfd, 0xff, 0xff, 0x04, 0x00, 0x00, 0x00, 0x00, 0x02, 0x00, 0x00,
  0xf2, 0x5b, 0xb3, 0xbe, 0x72, 0x76, 0x2d, 0xbe, 0x61, 0xef, 0xb5, 0x3d,
  0xd1, 0x9a, 0x96, 0xbe, 0xa8, 0x5f, 0xd4, 0xbd, 0x71, 0xc5, 0x60, 0x3d,
  0x9b, 0xd7, 0xa3, 0xbe, 0xe0, 0xd6, 0xcd, 0xbc, 0xde, 0xea, 0xc0, 0xbe,
  0x7c, 0xf8, 0x46, 0xbd, 0xef, 0xdd, 0xd2, 0x3e, 0x07, 0x8f, 0x76, 0xbe,
  0xa7, 0x9c, 0x50, 0xbe, 0xf8, 0x89, 0x2a, 0xbd, 0x05, 0x25, 0xae, 0x3e,
  0xa0, 0x5c, 0xf3, 0xbd, 0xc3, 0x06, 0x9a, 0x3e, 0x63, 0x19, 0xdd, 0x3e,
  0xc4, 0x2d, 0xcf, 0x3c, 0xc8, 0xe0, 0xbd, 0x3e, 0x06, 0xd7, 0x07, 0xbd,
  0xb4, 0xdf, 0x9d, 0x3e, 0x38, 0x72, 0x1d, 0xbd, 0x0a, 0x72, 0x30, 0xbe,
  0xbc, 0x53, 0xdc, 0xbd, 0x8e, 0xfd, 0x20, 0x3e, 0x21, 0xcf, 0x1a, 0xbe,
  0x1c, 0x28, 0x29, 0xbf, 0x8b, 0x41, 0x54, 0xbe, 0x4e, 0x08, 0xa1, 0xbe,
  0x3d, 0xf4, 0x6e, 0xbe, 0x9a, 0xbe, 0xb8, 0xbe, 0x3d, 0x88, 0x5e, 0xbe,
  0xb9, 0x63, 0x20, 0xbe, 0x8c, 0x91, 0x05, 0x3e, 0xc5, 0xe1, 0x86, 0x3e,
  0xc2, 0xb1, 0x3c, 0xbe, 0x91, 0x70, 0xe6, 0x3d, 0xba, 0x33, 0x83, 0x3e,
  0x90, 0x8d, 0xa7, 0xbe, 0xd0, 0x43, 0xb8, 0xbd, 0xb5, 0x02, 0x63, 0xbe,
  0x4a, 0xb9, 0x65, 0xbd, 0x17, 0x78, 0xc6, 0x3d, 0x1c, 0x49, 0x22, 0x3e,
  0x38, 0x94, 0x0f, 0xbd, 0x54, 0xe1, 0x25, 0xbe, 0x5f, 0xbb, 0x2b, 0xbe,
  0x86, 0x2f, 0x72, 0xbd, 0x0c, 0x1f, 0x96, 0xbe, 0xcf, 0xb1, 0x7e, 0xbe,
  0x36, 0x12, 0xd5, 0xbb, 0xe4, 0x10, 0x3d, 0xbd, 0xb6, 0x3b, 0x8b, 0x3e,
  0xdd, 0x39, 0xe5, 0x3e, 0xb5, 0x36, 0xb5, 0xbe, 0xaa, 0x0e, 0x23, 0xbc,
  0x12, 0x79, 0x5a, 0x3e, 0xeb, 0xe9, 0xeb, 0x3e, 0xdf, 0x58, 0xef, 0x3d,
  0x1b, 0x70, 0x76, 0x3d, 0x12, 0xc7, 0x34, 0x3e, 0x16, 0x46, 0xa3, 0x3e,
  0xd9, 0xb3, 0x91, 0x3d, 0x63, 0x10, 0x90, 0x3e, 0x2c, 0x26, 0x94, 0x3d,
  0x70, 0xa8, 0x1d, 0x3e, 0x49, 0x56, 0x27, 0x3e, 0xab, 0x03, 0xae, 0x3e,
  0x16, 0x2d, 0x95, 0x3e, 0x65, 0xba, 0x7c, 0x3e, 0xbc, 0x04, 0x43, 0xbe,
  0x75, 0x1f, 0x28, 0xbe, 0xd2, 0xe3, 0x7b, 0x3c, 0x7d, 0x3b, 0x71, 0x3e,
  0x68, 0xb9, 0x35, 0xbe, 0xc6, 0x00, 0x60, 0xbe, 0x10, 0xca, 0x59, 0x3e,
  0x05, 0xad, 0x74, 0x3d, 0xd4, 0x42, 0x89, 0xbe, 0xaf, 0xf0, 0x8b, 0x3b,
  0xfd, 0x95, 0x3f, 0x3e, 0xc6, 0x88, 0x46, 0x3c, 0x0c, 0x20, 0xc8, 0xbe,
  0xa9, 0x0c, 0xcc, 0x3c, 0xcd, 0x6d, 0x0e, 0xbe, 0xa5, 0x54, 0x1d, 0x3e,
  0xb2, 0x89, 0x8a, 0xbe, 0xd2, 0x03, 0xa7, 0xbd, 0xa7, 0x10, 0x8e, 0xbe,
  0x46, 0x01, 0xa1, 0xbe, 0xa8, 0xc2, 0xc4, 0x3e, 0x8d, 0x9c, 0x82, 0xbe,
  0xa8, 0xb4, 0x60, 0xbd, 0xab, 0xfe, 0x2d, 0xbe, 0x45, 0x53, 0x3d, 0xbe,
  0x17, 0xf6, 0xac, 0xbe, 0x19, 0x5c, 0x46, 0x3e, 0x60, 0x0c, 0xc7, 0xbb,
  0x81, 0x17, 0x98, 0x3c, 0xa7, 0xbf, 0xa5, 0x3e, 0x97, 0xcb, 0x85, 0x3e,
  0x98, 0xb0, 0x1a, 0x3d, 0x1f, 0x85, 0x1f, 0x3e, 0xac, 0xdf, 0xfc, 0xbd,
  0x7d, 0xa2, 0xa6, 0xbe, 0x24, 0xdc, 0x91, 0xbe, 0xba, 0x16, 0xb9, 0xbd,
  0xe8, 0x58, 0x94, 0xbe, 0xf8, 0xbb, 0xb8, 0x3e, 0xf2, 0x0f, 0xb0, 0xbe,
  0xb2, 0x3c, 0x44, 0x3d, 0x0b, 0x17, 0xbf, 0xbe, 0x27, 0x7b, 0x6c, 0xbe,
  0xa1, 0xbd, 0xad, 0x3e, 0x6f, 0x8c, 0x5d, 0x3e, 0x68, 0xe2, 0x42, 0x3e,
  0x21, 0xeb, 0x45, 0x3e, 0xdf, 0x7c, 0xe7, 0xbd, 0x80, 0x87, 0xda, 0xbd,
  0x7f, 0x00, 0x46, 0x3e, 0xa9, 0x7d, 0x6e, 0x3e, 0x3f, 0x23, 0x4c, 0x3e,
  0x88, 0xa4, 0x01, 0x3e, 0xf3, 0x83, 0x1b, 0x3e, 0x7b, 0xe1, 0x45, 0x3e,
  0xe7, 0xd8, 0x3b, 0x3e, 0x3e, 0xe8, 0x3d, 0xbe, 0xb0, 0xfb, 0xff, 0xff,
  0xb4, 0xfb, 0xff, 0xff, 0x0f, 0x00, 0x00, 0x00, 0x4d, 0x4c, 0x49, 0x52,
  0x20, 0x43, 0x6f, 0x6e, 0x76, 0x65, 0x72, 0x74, 0x65, 0x64, 0x2e, 0x00,
  0x01, 0x00, 0x00, 0x00, 0x14, 0x00, 0x00, 0x00, 0x00, 0x00, 0x0e, 0x00,
  0x18, 0x00, 0x14, 0x00, 0x10, 0x00, 0x0c, 0x00, 0x08, 0x00, 0x04, 0x00,
  0x0e, 0x00, 0x00, 0x00, 0x14, 0x00, 0x00, 0x00, 0x1c, 0x00, 0x00, 0x00,
  0xec, 0x00, 0x00, 0x00, 0xf0, 0x00, 0x00, 0x00, 0xf4, 0x00, 0x00, 0x00,
  0x04, 0x00, 0x00, 0x00, 0x6d, 0x61, 0x69, 0x6e, 0x00, 0x00, 0x00, 0x00,
  0x03, 0x00, 0x00, 0x00, 0x94, 0x00, 0x00, 0x00, 0x50, 0x00, 0x00, 0x00,
  0x14, 0x00, 0x00, 0x00, 0x00, 0x00, 0x0e, 0x00, 0x1a, 0x00, 0x14, 0x00,
  0x10, 0x00, 0x0c, 0x00, 0x0b, 0x00, 0x04, 0x00, 0x0e, 0x00, 0x00, 0x00,
  0x1c, 0x00, 0x00, 0x00, 0x00, 0x00, 0x00, 0x09, 0x1c, 0x00, 0x00, 0x00,
  0x20, 0x00, 0x00, 0x00, 0x01, 0x00, 0x00, 0x00, 0x00, 0x00, 0x06, 0x00,
  0x08, 0x00, 0x04, 0x00, 0x06, 0x00, 0x00, 0x00, 0x00, 0x00, 0x80, 0x3f,
  0x01, 0x00, 0x00, 0x00, 0x07, 0x00, 0x00, 0x00, 0x01, 0x00, 0x00, 0x00,
  0x06, 0x00, 0x00, 0x00, 0xce, 0xff, 0xff, 0xff, 0x10, 0x00, 0x00, 0x00,
  0x00, 0x00, 0x00, 0x08, 0x0c, 0x00, 0x00, 0x00, 0x10, 0x00, 0x00, 0x00,
  0x74, 0xfc, 0xff, 0xff, 0x01, 0x00, 0x00, 0x00, 0x06, 0x00, 0x00, 0x00,
  0x03, 0x00, 0x00, 0x00, 0x05, 0x00, 0x00, 0x00, 0x01, 0x00, 0x00, 0x00,
  0x04, 0x00, 0x00, 0x00, 0x00, 0x00, 0x0e, 0x00, 0x16, 0x00, 0x00, 0x00,
  0x10, 0x00, 0x0c, 0x00, 0x0b, 0x00, 0x04, 0x00, 0x0e, 0x00, 0x00, 0x00,
  0x18, 0x00, 0x00, 0x00, 0x00, 0x00, 0x00, 0x08, 0x18, 0x00, 0x00, 0x00,
  0x1c, 0x00, 0x00, 0x00, 0x00, 0x00, 0x06, 0x00, 0x08, 0x00, 0x07, 0x00,
  0x06, 0x00, 0x00, 0x00, 0x00, 0x00, 0x00, 0x01, 0x01, 0x00, 0x00, 0x00,
  0x05, 0x00, 0x00, 0x00, 0x03, 0x00, 0x00, 0x00, 0x00, 0x00, 0x00, 0x00,
  0x03, 0x00, 0x00, 0x00, 0x02, 0x00, 0x00, 0x00, 0x01, 0x00, 0x00, 0x00,
  0x07, 0x00, 0x00, 0x00, 0x01, 0x00, 0x00, 0x00, 0x00, 0x00, 0x00, 0x00,
  0x08, 0x00, 0x00, 0x00, 0xe8, 0x02, 0x00, 0x00, 0x84, 0x02, 0x00, 0x00,
  0x14, 0x02, 0x00, 0x00, 0xc8, 0x01, 0x00, 0x00, 0x70, 0x01, 0x00, 0x00,
  0xdc, 0x00, 0x00, 0x00, 0x60, 0x00, 0x00, 0x00, 0x04, 0x00, 0x00, 0x00,
  0x4e, 0xfd, 0xff, 0xff, 0x00, 0x00, 0x00, 0x01, 0x14, 0x00, 0x00, 0x00,
  0x1c, 0x00, 0x00, 0x00, 0x1c, 0x00, 0x00, 0x00, 0x08, 0x00, 0x00, 0x00,
  0x34, 0x00, 0x00, 0x00, 0x02, 0x00, 0x00, 0x00, 0xff, 0xff, 0xff, 0xff,
  0x04, 0x00, 0x00, 0x00, 0x38, 0xfd, 0xff, 0xff, 0x19, 0x00, 0x00, 0x00,
  0x53, 0x74, 0x61, 0x74, 0x65, 0x66, 0x75, 0x6c, 0x50, 0x61, 0x72, 0x74,
  0x69, 0x74, 0x69, 0x6f, 0x6e, 0x65, 0x64, 0x43, 0x61, 0x6c, 0x6c, 0x3a,
  0x30, 0x00, 0x00, 0x00, 0x02, 0x00, 0x00, 0x00, 0x01, 0x00, 0x00, 0x00,
  0x04, 0x00, 0x00, 0x00, 0xa6, 0xfd, 0xff, 0xff, 0x00, 0x00, 0x00, 0x01,
  0x14, 0x00, 0x00, 0x00, 0x1c, 0x00, 0x00, 0x00, 0x1c, 0x00, 0x00, 0x00,
  0x07, 0x00, 0x00, 0x00, 0x54, 0x00, 0x00, 0x00, 0x02, 0x00, 0x00, 0x00,
  0xff, 0xff, 0xff, 0xff, 0x04, 0x00, 0x00, 0x00, 0x90, 0xfd, 0xff, 0xff,
  0x38, 0x00, 0x00, 0x00, 0x73, 0x65, 0x71, 0x75, 0x65, 0x6e, 0x74, 0x69,
  0x61, 0x6c, 0x5f, 0x31, 0x2f, 0x64, 0x65, 0x6e, 0x73, 0x65, 0x5f, 0x33,
  0x2f, 0x4d, 0x61, 0x74, 0x4d, 0x75, 0x6c, 0x3b, 0x73, 0x65, 0x71, 0x75,
  0x65, 0x6e, 0x74, 0x69, 0x61, 0x6c, 0x5f, 0x31, 0x2f, 0x64, 0x65, 0x6e,
  0x73, 0x65, 0x5f, 0x33, 0x2f, 0x42, 0x69, 0x61, 0x73, 0x41, 0x64, 0x64,
  0x00, 0x00, 0x00, 0x00, 0x02, 0x00, 0x00, 0x00, 0x01, 0x00, 0x00, 0x00,
  0x04, 0x00, 0x00, 0x00, 0x1e, 0xfe, 0xff, 0xff, 0x00, 0x00, 0x00, 0x01,
  0x14, 0x00, 0x00, 0x00, 0x1c, 0x00, 0x00, 0x00, 0x1c, 0x00, 0x00, 0x00,
  0x06, 0x00, 0x00, 0x00, 0x6c, 0x00, 0x00, 0x00, 0x02, 0x00, 0x00, 0x00,
  0xff, 0xff, 0xff, 0xff, 0x20, 0x00, 0x00, 0x00, 0x08, 0xfe, 0xff, 0xff,
  0x52, 0x00, 0x00, 0x00, 0x73, 0x65, 0x71, 0x75, 0x65, 0x6e, 0x74, 0x69,
  0x61, 0x6c, 0x5f, 0x31, 0x2f, 0x64, 0x65, 0x6e, 0x73, 0x65, 0x5f, 0x32,
  0x2f, 0x4d, 0x61, 0x74, 0x4d, 0x75, 0x6c, 0x3b, 0x73, 0x65, 0x71, 0x75,
  0x65, 0x6e, 0x74, 0x69, 0x61, 0x6c, 0x5f, 0x31, 0x2f, 0x64, 0x65, 0x6e,
  0x73, 0x65, 0x5f, 0x32, 0x2f, 0x52, 0x65, 0x6c, 0x75, 0x3b, 0x73, 0x65,
  0x71, 0x75, 0x65, 0x6e, 0x74, 0x69, 0x61, 0x6c, 0x5f, 0x31, 0x2f, 0x64,
  0x65, 0x6e, 0x73, 0x65, 0x5f, 0x32, 0x2f, 0x42, 0x69, 0x61, 0x73, 0x41,
  0x64, 0x64, 0x00, 0x00, 0x02, 0x00, 0x00, 0x00, 0x01, 0x00, 0x00, 0x00,
  0x20, 0x00, 0x00, 0x00, 0x0e, 0xff, 0xff, 0xff, 0x00, 0x00, 0x00, 0x01,
  0x10, 0x00, 0x00, 0x00, 0x10, 0x00, 0x00, 0x00, 0x05, 0x00, 0x00, 0x00,
  0x38, 0x00, 0x00, 0x00, 0x88, 0xfe, 0xff, 0xff, 0x2b, 0x00, 0x00, 0x00,
  0x73, 0x65, 0x71, 0x75, 0x65, 0x6e, 0x74, 0x69, 0x61, 0x6c, 0x5f, 0x31,
  0x2f, 0x64, 0x65, 0x6e, 0x73, 0x65, 0x5f, 0x33, 0x2f, 0x42, 0x69, 0x61,
  0x73, 0x41, 0x64, 0x64, 0x2f, 0x52, 0x65, 0x61, 0x64, 0x56, 0x61, 0x72,
  0x69, 0x61, 0x62, 0x6c, 0x65, 0x4f, 0x70, 0x00, 0x01, 0x00, 0x00, 0x00,
  0x04, 0x00, 0x00, 0x00, 0x62, 0xff, 0xff, 0xff, 0x00, 0x00, 0x00, 0x01,
  0x10, 0x00, 0x00, 0x00, 0x10, 0x00, 0x00, 0x00, 0x04, 0x00, 0x00, 0x00,
  0x28, 0x00, 0x00, 0x00, 0xdc, 0xfe, 0xff, 0xff, 0x1b, 0x00, 0x00, 0x00,
  0x73, 0x65, 0x71, 0x75, 0x65, 0x6e, 0x74, 0x69, 0x61, 0x6c, 0x5f, 0x31,
  0x2f, 0x64, 0x65, 0x6e, 0x73, 0x65, 0x5f, 0x32, 0x2f, 0x4d, 0x61, 0x74,
  0x4d, 0x75, 0x6c, 0x00, 0x02, 0x00, 0x00, 0x00, 0x20, 0x00, 0x00, 0x00,
  0x0f, 0x00, 0x00, 0x00, 0xaa, 0xff, 0xff, 0xff, 0x00, 0x00, 0x00, 0x01,
  0x10, 0x00, 0x00, 0x00, 0x10, 0x00, 0x00, 0x00, 0x03, 0x00, 0x00, 0x00,
  0x38, 0x00, 0x00, 0x00, 0x24, 0xff, 0xff, 0xff, 0x2b, 0x00, 0x00, 0x00,
  0x73, 0x65, 0x71, 0x75, 0x65, 0x6e, 0x74, 0x69, 0x61, 0x6c, 0x5f, 0x31,
  0x2f, 0x64, 0x65, 0x6e, 0x73, 0x65, 0x5f, 0x32, 0x2f, 0x42, 0x69, 0x61,
  0x73, 0x41, 0x64, 0x64, 0x2f, 0x52, 0x65, 0x61, 0x64, 0x56, 0x61, 0x72,
  0x69, 0x61, 0x62, 0x6c, 0x65, 0x4f, 0x70, 0x00, 0x01, 0x00, 0x00, 0x00,
  0x20, 0x00, 0x00, 0x00, 0x00, 0x00, 0x16, 0x00, 0x18, 0x00, 0x14, 0x00,
  0x00, 0x00, 0x10, 0x00, 0x0c, 0x00, 0x08, 0x00, 0x00, 0x00, 0x00, 0x00,
  0x00, 0x00, 0x07, 0x00, 0x16, 0x00, 0x00, 0x00, 0x00, 0x00, 0x00, 0x01,
  0x10, 0x00, 0x00, 0x00, 0x10, 0x00, 0x00, 0x00, 0x02, 0x00, 0x00, 0x00,
  0x28, 0x00, 0x00, 0x00, 0x90, 0xff, 0xff, 0xff, 0x1b, 0x00, 0x00, 0x00,
  0x73, 0x65, 0x71, 0x75, 0x65, 0x6e, 0x74, 0x69, 0x61, 0x6c, 0x5f, 0x31,
  0x2f, 0x64, 0x65, 0x6e, 0x73, 0x65, 0x5f, 0x33, 0x2f, 0x4d, 0x61, 0x74,
  0x4d, 0x75, 0x6c, 0x00, 0x02, 0x00, 0x00, 0x00, 0x04, 0x00, 0x00, 0x00,
  0x20, 0x00, 0x00, 0x00, 0x00, 0x00, 0x16, 0x00, 0x1c, 0x00, 0x18, 0x00,
  0x00, 0x00, 0x14, 0x00, 0x10, 0x00, 0x0c, 0x00, 0x00, 0x00, 0x00, 0x00,
  0x08, 0x00, 0x07, 0x00, 0x16, 0x00, 0x00, 0x00, 0x00, 0x00, 0x00, 0x01,
  0x14, 0x00, 0x00, 0x00, 0x20, 0x00, 0x00, 0x00, 0x20, 0x00, 0x00, 0x00,
  0x01, 0x00, 0x00, 0x00, 0x38, 0x00, 0x00, 0x00, 0x02, 0x00, 0x00, 0x00,
  0xff, 0xff, 0xff, 0xff, 0x0f, 0x00, 0x00, 0x00, 0x04, 0x00, 0x04, 0x00,
  0x04, 0x00, 0x00, 0x00, 0x19, 0x00, 0x00, 0x00, 0x73, 0x65, 0x72, 0x76,
  0x69, 0x6e, 0x67, 0x5f, 0x64, 0x65, 0x66, 0x61, 0x75, 0x6c, 0x74, 0x5f,
  0x69, 0x6e, 0x70, 0x75, 0x74, 0x5f, 0x32, 0x3a, 0x30, 0x00, 0x00, 0x00,
  0x02, 0x00, 0x00, 0x00, 0x01, 0x00, 0x00, 0x00, 0x0f, 0x00, 0x00, 0x00,
  0x02, 0x00, 0x00, 0x00, 0x20, 0x00, 0x00, 0x00, 0x04, 0x00, 0x00, 0x00,
  0xf4, 0xff, 0xff, 0xff, 0x19, 0x00, 0x00, 0x00, 0x00, 0x00, 0x00, 0x19,
  0x0c, 0x00, 0x0c, 0x00, 0x0b, 0x00, 0x00, 0x00, 0x00, 0x00, 0x04, 0x00,
  0x0c, 0x00, 0x00, 0x00, 0x09, 0x00, 0x00, 0x00, 0x00, 0x00, 0x00, 0x09
};
unsigned int notebooks_model_generator_converted_model_tflite_len = 4284;
